WIDTH=32;
DEPTH=676;
ADDRESS_RADIX=DEC;
DATA_RADIX=HEX;
CONTENT BEGIN
0 : fffffe72;
1 : ffffefad;
2 : ffffc83c;
3 : ffffcd53;
4 : ffffc8b7;
5 : ffffe734;
6 : ffffbcc0;
7 : ffff9516;
8 : ffffb020;
9 : ffffce86;
10 : ffffc630;
11 : ffffda21;
12 : ffffdd21;
13 : ffffc55a;
14 : ffffd9f0;
15 : ffffd9c0;
16 : ffffc0a8;
17 : ffffe8ca;
18 : ffffd329;
19 : ffff9fc8;
20 : ffffeda1;
21 : ffffd8d8;
22 : ffffe140;
23 : ffffc895;
24 : ffffd3b8;
25 : 00000c3e;
26 : ffffdd5d;
27 : fffff184;
28 : 00000116;
29 : 00001955;
30 : ffffdf12;
31 : ffffe35b;
32 : ffffa354;
33 : ffffb3bd;
34 : ffffb978;
35 : ffffe6ab;
36 : 000019db;
37 : 00004b43;
38 : 00001634;
39 : ffffe486;
40 : 00003989;
41 : 00001e79;
42 : ffffdd03;
43 : ffffb787;
44 : ffffa0b1;
45 : ffff8bca;
46 : ffff9c33;
47 : ffff907d;
48 : ffffc271;
49 : 00000154;
50 : 000028ff;
51 : 00000ed3;
52 : ffffe69b;
53 : fffff33e;
54 : 00000b96;
55 : ffffc2c7;
56 : ffffb657;
57 : ffffc02f;
58 : ffffcc39;
59 : ffffd2ea;
60 : ffffb7f3;
61 : ffffcd9f;
62 : fffff5e8;
63 : 00001b3e;
64 : 00001346;
65 : 00000e05;
66 : fffff77b;
67 : ffffc41a;
68 : ffffe641;
69 : fffff53d;
70 : ffffe318;
71 : ffffe0e2;
72 : ffffe53b;
73 : ffffb6b5;
74 : ffffcd5f;
75 : ffffe8b6;
76 : fffff3e1;
77 : fffff9bd;
78 : fffff1e0;
79 : fffff314;
80 : 000007c6;
81 : 00000a51;
82 : 00000053;
83 : 00000ee0;
84 : 000026fb;
85 : fffffabe;
86 : ffffcd1c;
87 : 00000b4e;
88 : 000033d1;
89 : 00003b6d;
90 : ffffda52;
91 : 00001c30;
92 : 00003a3e;
93 : 00003c2e;
94 : 00001725;
95 : 00002b49;
96 : 00001fca;
97 : 000029ad;
98 : 00001573;
99 : 00001ea6;
100 : 00000c28;
101 : ffffed20;
102 : ffffec3d;
103 : ffffdab7;
104 : 00000bcf;
105 : 00002234;
106 : 00002573;
107 : 00000d43;
108 : fffffba5;
109 : 000015b8;
110 : 00000fb5;
111 : 00001b0c;
112 : 00001196;
113 : 000016a1;
114 : 00001941;
115 : fffff95b;
116 : fffff555;
117 : 00000e72;
118 : 00000d57;
119 : 00000b47;
120 : 000003eb;
121 : fffff42d;
122 : 000000fd;
123 : 000006ff;
124 : fffffe71;
125 : 00000375;
126 : 00002aa7;
127 : fffffa0b;
128 : fffffdb6;
129 : ffffe1fc;
130 : fffff8c8;
131 : fffff3ea;
132 : ffffff84;
133 : ffffee37;
134 : fffff159;
135 : ffffed2f;
136 : ffffebb4;
137 : 00000534;
138 : fffffb41;
139 : fffff64e;
140 : 00000dd5;
141 : fffffba0;
142 : ffffbd5d;
143 : ffffcaad;
144 : ffffaa9d;
145 : ffffec99;
146 : fffffb29;
147 : ffffe9a3;
148 : ffffdbd6;
149 : ffffe691;
150 : ffffe8d0;
151 : fffffc86;
152 : 00000b34;
153 : 00001c50;
154 : 00002c03;
155 : 000016ea;
156 : fffff10b;
157 : 00001d99;
158 : 00000d7b;
159 : ffffde28;
160 : ffffeda1;
161 : ffffe8ae;
162 : ffffe46e;
163 : ffffecf0;
164 : fffff6e3;
165 : 00000479;
166 : ffffe030;
167 : 00000224;
168 : ffffacab;
169 : 00000124;
170 : ffffe400;
171 : ffffcd49;
172 : ffffd42c;
173 : ffffdfc3;
174 : ffffef9f;
175 : ffffda7c;
176 : 00000938;
177 : ffffcfd5;
178 : ffffd1ff;
179 : ffffd22d;
180 : ffffae98;
181 : ffffe32b;
182 : 000002b5;
183 : ffffc6d4;
184 : ffffeec6;
185 : 00000c2d;
186 : 0000052f;
187 : ffffe222;
188 : 00000914;
189 : fffff3c7;
190 : ffffe3db;
191 : ffffe353;
192 : ffffe0a1;
193 : 00000ba5;
194 : 0000131e;
195 : fffff5ce;
196 : ffffd7da;
197 : 00000b8b;
198 : 00002695;
199 : 00004ba9;
200 : 00003393;
201 : 00001d78;
202 : fffffc22;
203 : ffffee89;
204 : fffff181;
205 : fffff6ce;
206 : 00000558;
207 : 00000ae0;
208 : fffffdbe;
209 : ffffd892;
210 : 000011f6;
211 : 00002e56;
212 : 0000453f;
213 : 00001c85;
214 : 000027c1;
215 : 0000138a;
216 : fffffa20;
217 : 000002c6;
218 : 000022db;
219 : fffffd14;
220 : 000003bf;
221 : fffffcaf;
222 : 00001530;
223 : 00000806;
224 : 000018a0;
225 : 00001f12;
226 : 00001a85;
227 : 0000277f;
228 : 0000189b;
229 : 00001687;
230 : 00000c0e;
231 : 00001834;
232 : fffff7fd;
233 : 00000366;
234 : ffffe102;
235 : fffffa15;
236 : ffffdcef;
237 : fffffc79;
238 : 00001bf9;
239 : 00003189;
240 : 000025d9;
241 : 00000900;
242 : 00002605;
243 : 000026f7;
244 : 000012c7;
245 : fffffac5;
246 : fffff767;
247 : 00001d43;
248 : ffffca47;
249 : ffffda7b;
250 : 000015f3;
251 : 00001cfc;
252 : 00002c21;
253 : 00000a04;
254 : 000003a6;
255 : 00002276;
256 : 000013a5;
257 : 00000d61;
258 : 00000a82;
259 : ffffda9d;
260 : 000001cc;
261 : ffffce85;
262 : ffffdcb9;
263 : fffff12c;
264 : 000002a8;
265 : fffff32d;
266 : ffffeb9c;
267 : ffffe497;
268 : 000004bb;
269 : 00000df7;
270 : 00001325;
271 : 000002ef;
272 : ffffc855;
273 : ffffdb45;
274 : ffffd88c;
275 : ffffda63;
276 : ffffde56;
277 : ffffe07b;
278 : ffffe1dc;
279 : fffff2a6;
280 : fffff7d3;
281 : fffff0eb;
282 : fffff377;
283 : 0000109b;
284 : ffffe41b;
285 : ffffe1aa;
286 : ffffec47;
287 : ffffdc82;
288 : ffffcaad;
289 : ffffbedc;
290 : ffffc347;
291 : 00000a9c;
292 : fffff16f;
293 : 00000f82;
294 : fffff303;
295 : fffff641;
296 : fffff24f;
297 : ffffeda5;
298 : ffffd072;
299 : 000004bb;
300 : ffffefcc;
301 : ffffd204;
302 : ffffde57;
303 : 0000083e;
304 : 00002ef7;
305 : 00001759;
306 : 0000014d;
307 : 000023fd;
308 : 00000c21;
309 : 000011f0;
310 : 000000f1;
311 : ffffd5d3;
312 : 000002f7;
313 : 00000587;
314 : fffff305;
315 : 000059a0;
316 : 00004339;
317 : 00005564;
318 : 00002e92;
319 : 00002a22;
320 : 00001fb0;
321 : fffffcea;
322 : 0000046c;
323 : 000012ec;
324 : 000006f2;
325 : 000009a4;
326 : 000005c8;
327 : 000033bf;
328 : 000049db;
329 : 000022c1;
330 : 00001f2b;
331 : fffff32f;
332 : 00001580;
333 : ffffee7b;
334 : fffffb20;
335 : ffffb573;
336 : fffff947;
337 : ffffd4b6;
338 : fffff2ef;
339 : fffff015;
340 : ffffe6e5;
341 : ffffc5dd;
342 : ffffbf97;
343 : ffffc11e;
344 : fffffa0a;
345 : ffffdc64;
346 : ffffcd9c;
347 : ffffffdb;
348 : ffffec75;
349 : ffffec5a;
350 : ffffec65;
351 : ffffef47;
352 : ffffd595;
353 : ffffea63;
354 : ffffe00a;
355 : ffffed21;
356 : 00000b50;
357 : 00003b15;
358 : 00001f5e;
359 : 000049f5;
360 : 00004dac;
361 : 0000340c;
362 : 00001ddc;
363 : ffffe50b;
364 : ffffedd1;
365 : fffffc34;
366 : ffffe383;
367 : 00000077;
368 : 0000309d;
369 : 00004736;
370 : 00006af1;
371 : 00008bc2;
372 : 000083b6;
373 : 00007119;
374 : 000093ea;
375 : 000037ea;
376 : fffff7f9;
377 : ffffd85d;
378 : 00000387;
379 : ffffea85;
380 : 00000684;
381 : 000039f0;
382 : 00003d7f;
383 : 00005f3f;
384 : 0000372a;
385 : 00001773;
386 : 000042c2;
387 : 000032cd;
388 : 00002fb7;
389 : ffffeede;
390 : fffff91d;
391 : fffff396;
392 : 000005bd;
393 : 000022de;
394 : 000026e5;
395 : 00003099;
396 : 000015a3;
397 : 00002879;
398 : 00004187;
399 : 00002cc9;
400 : 0000039c;
401 : ffffe5c6;
402 : ffffe240;
403 : fffff0c6;
404 : 000010d2;
405 : 000017f9;
406 : 00000fa5;
407 : 00000f8c;
408 : 000000fe;
409 : ffffcda6;
410 : 00000df9;
411 : 00003465;
412 : 000018c2;
413 : ffffae01;
414 : ffffb887;
415 : ffffd2c5;
416 : ffffeae6;
417 : 000014b0;
418 : 00001a10;
419 : 000021d9;
420 : ffffee3b;
421 : ffffca37;
422 : ffffe1f9;
423 : 000001b9;
424 : 0000007b;
425 : 00000294;
426 : fffff564;
427 : ffffdbb5;
428 : fffffa57;
429 : 000013ee;
430 : 00001978;
431 : fffffc75;
432 : fffffc43;
433 : ffffd61f;
434 : ffffda9e;
435 : 00000c3e;
436 : 0000117d;
437 : ffffef1a;
438 : ffffd4c3;
439 : ffffde02;
440 : 00000760;
441 : ffffe8f1;
442 : 00000124;
443 : ffffff3f;
444 : 00000838;
445 : fffff604;
446 : ffffdfc5;
447 : fffffd8b;
448 : 00000718;
449 : 000004da;
450 : ffffd1c7;
451 : ffffd3cf;
452 : fffffc21;
453 : ffffd853;
454 : ffffdb57;
455 : 00000872;
456 : 00000400;
457 : 00000552;
458 : fffff2d4;
459 : ffffff95;
460 : 00000982;
461 : 0000173e;
462 : 000001de;
463 : 00000f3f;
464 : fffff055;
465 : ffffe761;
466 : ffffcadf;
467 : ffffe070;
468 : fffff0e9;
469 : ffffea34;
470 : ffffed6f;
471 : ffffeedc;
472 : fffff67c;
473 : 000000d5;
474 : 0000128e;
475 : 000019fe;
476 : 000037f7;
477 : 00003514;
478 : 00001b02;
479 : ffffd6da;
480 : ffffe5f9;
481 : ffffefe6;
482 : ffffdc80;
483 : ffffe3d3;
484 : fffffc72;
485 : 00000fc3;
486 : 00001cb9;
487 : 00001fc0;
488 : 00002d06;
489 : 00000ac3;
490 : 00000c6c;
491 : 000011d3;
492 : fffffa88;
493 : fffffe0f;
494 : ffffeae3;
495 : 00000dc3;
496 : ffffc5ed;
497 : ffffda10;
498 : 000010e3;
499 : ffffe3e5;
500 : ffffffb8;
501 : fffff89b;
502 : ffffdbbd;
503 : ffffd193;
504 : 00000a1d;
505 : fffff4a9;
506 : ffffe9f6;
507 : fffff28c;
508 : fffff6e3;
509 : fffff7a6;
510 : ffffd46c;
511 : ffffcd0c;
512 : ffffba25;
513 : ffffda05;
514 : fffff386;
515 : ffffd6cf;
516 : ffffd314;
517 : ffffcee0;
518 : ffffea76;
519 : fffffad3;
520 : ffffebe0;
521 : ffffe0c1;
522 : fffff5a7;
523 : fffff5f5;
524 : ffffe87a;
525 : ffffe141;
526 : fffff2d5;
527 : ffffe31c;
528 : ffffed45;
529 : ffffed3f;
530 : fffff60b;
531 : 00000c3d;
532 : ffffff54;
533 : fffffa68;
534 : fffffae2;
535 : ffffeaa9;
536 : ffffedb7;
537 : ffffecbd;
538 : ffffe1d2;
539 : ffffb589;
540 : ffffc00e;
541 : ffffef95;
542 : ffffef41;
543 : 0000018a;
544 : 00001423;
545 : 00002071;
546 : ffffe89d;
547 : ffffe782;
548 : ffffeb42;
549 : ffffe3a3;
550 : ffffde84;
551 : ffffcf8b;
552 : ffffba76;
553 : ffffad12;
554 : ffffe265;
555 : 00000b1a;
556 : 00001a83;
557 : fffff5df;
558 : 00001798;
559 : ffffeb79;
560 : ffffe384;
561 : fffff51e;
562 : 0000132c;
563 : 00000098;
564 : ffffe9b1;
565 : ffffc063;
566 : ffff9df2;
567 : ffffb7ec;
568 : 0000034a;
569 : fffffb0b;
570 : 0000028c;
571 : ffffe9b7;
572 : ffffd2da;
573 : ffffe3eb;
574 : 000009cd;
575 : ffffe5f0;
576 : ffffffaf;
577 : ffffe791;
578 : fffffbaa;
579 : ffffb2fe;
580 : ffffccd8;
581 : fffff8b1;
582 : 00001cc3;
583 : 00000c0b;
584 : ffffd446;
585 : 00000dbb;
586 : fffff51f;
587 : ffffd9df;
588 : fffff66a;
589 : ffffe00c;
590 : 000010b2;
591 : ffffeb0b;
592 : ffffc87c;
593 : fffffb92;
594 : 00000229;
595 : 00002171;
596 : 00001858;
597 : fffffadf;
598 : 00000792;
599 : 00000f59;
600 : ffffdb42;
601 : ffffecc9;
602 : 00000ad9;
603 : 000023ab;
604 : 000019c6;
605 : ffffdd8a;
606 : fffff74f;
607 : 00001a32;
608 : 0000074b;
609 : 00001617;
610 : ffffda6b;
611 : fffffed8;
612 : 00002389;
613 : 000006b2;
614 : ffffcbd4;
615 : 0000073c;
616 : 0000148b;
617 : 00000a60;
618 : ffffeda4;
619 : 0000148d;
620 : 00000358;
621 : 00000982;
622 : 00001ca1;
623 : fffff9c4;
624 : ffffedd6;
625 : 00000228;
626 : fffff463;
627 : 00000c28;
628 : fffff4d4;
629 : ffffc943;
630 : ffff9d0e;
631 : ffffc180;
632 : ffffe710;
633 : fffff186;
634 : 00000347;
635 : fffff1d7;
636 : ffffd6e7;
637 : fffff1ec;
638 : ffffe8f0;
639 : fffff26e;
640 : fffff65d;
641 : ffffbb9e;
642 : ffff8fc7;
643 : ffff6608;
644 : ffff87fa;
645 : ffffd80a;
646 : 000005ab;
647 : 000001af;
648 : 00000c79;
649 : fffffc75;
650 : fffffbc2;
651 : 00000e11;
652 : ffffe6d8;
653 : ffffc24d;
654 : ffff891f;
655 : ffff8652;
656 : ffffbf72;
657 : ffffea4c;
658 : 00001428;
659 : fffff684;
660 : 00001347;
661 : fffffb4e;
662 : fffff43d;
663 : fffff155;
664 : 00000396;
665 : 000008a5;
666 : ffffeeb6;
667 : fffff24d;
668 : fffff895;
669 : fffff65a;
670 : fffffef4;
671 : 00001f31;
672 : ffffec4f;
673 : ffffec36;
674 : ffffebd4;
675 : fffff90e;
END;
