WIDTH=32;
DEPTH=676;
ADDRESS_RADIX=DEC;
DATA_RADIX=HEX;
CONTENT BEGIN
0 : 0000035a;
1 : fffffb9e;
2 : fffffe68;
3 : ffffee8f;
4 : ffffd9d7;
5 : ffffcee4;
6 : ffffbdb0;
7 : ffffc0ba;
8 : ffffb8b5;
9 : fffff07c;
10 : ffffe345;
11 : ffffe938;
12 : fffff9c9;
13 : ffffe55d;
14 : ffffea14;
15 : ffffde88;
16 : ffffe2db;
17 : ffffbce2;
18 : ffffb916;
19 : ffffc18f;
20 : ffffad51;
21 : ffffcd20;
22 : ffff9a2c;
23 : ffffba2f;
24 : ffffbc65;
25 : fffff06f;
26 : ffffe9eb;
27 : ffffab09;
28 : ffff95b7;
29 : ffff3f2d;
30 : fffffc2d;
31 : 00001e11;
32 : 00003dc7;
33 : 00003427;
34 : 00002e4b;
35 : 00004139;
36 : ffffaf8b;
37 : ffff1b1b;
38 : ffff97bb;
39 : ffff927b;
40 : ffff7898;
41 : ffffe619;
42 : 00000011;
43 : 00002591;
44 : 0000182e;
45 : 00003396;
46 : 000014d8;
47 : 00001d9a;
48 : 00000411;
49 : 00000172;
50 : ffffe0b2;
51 : ffffcbf5;
52 : fffff72c;
53 : ffffef8a;
54 : 00000165;
55 : 000013cc;
56 : ffffeeef;
57 : ffffffca;
58 : 00000d87;
59 : 0000052d;
60 : fffffc07;
61 : ffffff37;
62 : ffffdec5;
63 : ffffd83e;
64 : ffffb92c;
65 : ffffe540;
66 : ffffe571;
67 : 000012f6;
68 : fffffb69;
69 : 00001655;
70 : 000018ed;
71 : 00003d75;
72 : 00002528;
73 : ffffff94;
74 : ffffece7;
75 : ffffc58a;
76 : ffffcc20;
77 : ffffd6ef;
78 : ffffebd9;
79 : fffff686;
80 : 00000beb;
81 : 00000668;
82 : 00000dc1;
83 : fffffecc;
84 : 000046c1;
85 : 0000475b;
86 : fffff0dd;
87 : ffffe5c5;
88 : ffffe4e8;
89 : ffffd5a2;
90 : ffffd137;
91 : fffffd98;
92 : ffffea6f;
93 : 000000c0;
94 : fffff8b7;
95 : 00000335;
96 : 00002939;
97 : 000046a8;
98 : 000035a9;
99 : 000001ba;
100 : fffffd83;
101 : fffffbff;
102 : ffffdc76;
103 : ffff7317;
104 : ffffe598;
105 : ffffe42f;
106 : ffffecc2;
107 : fffffec1;
108 : 0000190e;
109 : 00001ff1;
110 : 00002cfa;
111 : 00002694;
112 : fffff2b9;
113 : ffffcd55;
114 : ffffd176;
115 : ffffd619;
116 : ffff38ad;
117 : ffffb2f8;
118 : ffffc5ab;
119 : ffffdc9e;
120 : 000007ad;
121 : 0000132b;
122 : 00001184;
123 : 00000489;
124 : ffffffab;
125 : ffffd9eb;
126 : fffff2bf;
127 : ffffeca9;
128 : fffff7bc;
129 : ffffb4a6;
130 : ffffb0ea;
131 : fffff102;
132 : fffff172;
133 : ffffe832;
134 : fffff425;
135 : fffffc1d;
136 : ffffdfad;
137 : ffffc4ca;
138 : fffff17a;
139 : fffffbe9;
140 : ffffd9c8;
141 : 00002b46;
142 : 00002067;
143 : fffffc5b;
144 : ffffcbda;
145 : ffffe1ee;
146 : ffffd8d2;
147 : ffffde24;
148 : fffff0fe;
149 : ffffda30;
150 : ffffeee6;
151 : 00000216;
152 : fffffb84;
153 : fffff75d;
154 : 000010a4;
155 : 00003ae5;
156 : ffff7a75;
157 : 00002048;
158 : 000009cc;
159 : 00000603;
160 : 00000dfb;
161 : ffffff0c;
162 : ffffecf2;
163 : fffff3f9;
164 : 00000067;
165 : fffffa4c;
166 : 00001b00;
167 : 0000113c;
168 : ffffcc69;
169 : 00000300;
170 : 0000043e;
171 : 00000262;
172 : fffffb7e;
173 : ffffd50f;
174 : ffffc4d0;
175 : ffffa6c8;
176 : ffff951a;
177 : ffffc020;
178 : ffffb8bb;
179 : ffffd18d;
180 : fffffc20;
181 : 00000762;
182 : 0000002f;
183 : fffff5de;
184 : ffffcf47;
185 : ffffe547;
186 : ffffe165;
187 : 0000060e;
188 : ffffed0b;
189 : ffffe82b;
190 : fffffdb0;
191 : 00000d01;
192 : 00001243;
193 : ffff8ee4;
194 : ffffed70;
195 : ffffcb14;
196 : ffffb1b2;
197 : ffffb57d;
198 : ffffca72;
199 : ffffad60;
200 : ffffbbb0;
201 : 000007bd;
202 : 0000044b;
203 : 000021c9;
204 : 00000ebf;
205 : 00002179;
206 : ffffe2ea;
207 : ffffea37;
208 : ffff95d1;
209 : ffff9cc0;
210 : ffff72bc;
211 : ffff98f3;
212 : ffffa135;
213 : ffffcedf;
214 : fffff558;
215 : 00001359;
216 : 000012ef;
217 : 0000083c;
218 : 00000e41;
219 : fffff589;
220 : 0000037f;
221 : ffff8f8f;
222 : ffffea15;
223 : ffffc29e;
224 : fffff1ac;
225 : 000003e7;
226 : 000008f5;
227 : 000009c2;
228 : 00001b5c;
229 : 00000db3;
230 : 00000ba2;
231 : 0000138c;
232 : 00000bd1;
233 : 0000058a;
234 : ffffcdc9;
235 : 00003cfb;
236 : 00003520;
237 : 000045ab;
238 : 00003615;
239 : 00003f0d;
240 : 00001392;
241 : ffffe9e3;
242 : 00000682;
243 : 000004af;
244 : 000000b4;
245 : 00000e14;
246 : 00000657;
247 : fffff55d;
248 : 00005d74;
249 : 000059b7;
250 : 0000347c;
251 : 00001c74;
252 : 000008f8;
253 : ffffc6e0;
254 : fffff5a9;
255 : ffffed46;
256 : fffffa7f;
257 : 000011f8;
258 : 00000bd0;
259 : fffff1a2;
260 : fffff935;
261 : 00003d85;
262 : 000039c5;
263 : 00001b57;
264 : 00000c1b;
265 : ffffec77;
266 : ffffacae;
267 : ffffe26f;
268 : 000001a2;
269 : fffffc14;
270 : 000026e7;
271 : 00000bd5;
272 : ffffbd1d;
273 : ffffb984;
274 : ffffe45e;
275 : 00001de8;
276 : ffffe028;
277 : fffffba1;
278 : ffffbe83;
279 : ffffb6a2;
280 : ffffdc0d;
281 : fffff244;
282 : 000006aa;
283 : 0000076f;
284 : 00000911;
285 : ffffbfc4;
286 : ffffb3ca;
287 : ffffb739;
288 : ffffe2b8;
289 : 00000547;
290 : ffffbe28;
291 : ffffc1b6;
292 : 000005c8;
293 : ffffff16;
294 : fffffa07;
295 : ffffff7b;
296 : 00000b79;
297 : 00000261;
298 : 00000695;
299 : ffffdf45;
300 : ffffb7f5;
301 : 00000bc9;
302 : ffffc01e;
303 : ffffd3e9;
304 : fffffb4a;
305 : 00000b9c;
306 : fffff732;
307 : fffffd9e;
308 : 000009d0;
309 : 00000b8d;
310 : 00001353;
311 : 0000301a;
312 : fffff5e7;
313 : ffffcf66;
314 : ffffadf5;
315 : ffffa430;
316 : fffff734;
317 : 00001acf;
318 : 0000248b;
319 : 00001647;
320 : 00000904;
321 : 00000b98;
322 : 00000784;
323 : 0000125a;
324 : 00002c48;
325 : fffff617;
326 : ffffeff7;
327 : fffff94a;
328 : 00005d90;
329 : 00003b5a;
330 : 000036ac;
331 : 000035f3;
332 : 00001151;
333 : 0000171c;
334 : 00001980;
335 : 00001752;
336 : ffffeb3b;
337 : ffffd75f;
338 : 0000051b;
339 : fffffb97;
340 : fffff6e8;
341 : fffffc1b;
342 : ffffec34;
343 : ffffe84c;
344 : ffffe135;
345 : ffffe1b5;
346 : ffffef91;
347 : fffff59f;
348 : fffffad9;
349 : 000002a6;
350 : 000003b7;
351 : fffffaac;
352 : fffff4b1;
353 : ffffe6a1;
354 : fffff85a;
355 : 000018cd;
356 : fffff529;
357 : ffffa154;
358 : ffff83bc;
359 : ffffab9c;
360 : ffffaca0;
361 : ffffeab0;
362 : fffff8c5;
363 : 000007ba;
364 : fffff0dc;
365 : ffffcba7;
366 : 000006ce;
367 : ffffef81;
368 : ffffd0f8;
369 : ffffd2f8;
370 : ffffe437;
371 : ffffd90b;
372 : ffffa4da;
373 : ffff95fa;
374 : ffff96c1;
375 : ffffc026;
376 : fffffafb;
377 : ffffec17;
378 : 00000379;
379 : fffff64f;
380 : fffff81c;
381 : ffffefbe;
382 : 00000ae9;
383 : 00001cca;
384 : 000008dd;
385 : 000001bf;
386 : ffffe899;
387 : fffffc27;
388 : ffffea48;
389 : ffffe26e;
390 : fffff902;
391 : 00002ae4;
392 : 00000517;
393 : 000001d2;
394 : 00001ae1;
395 : 00002684;
396 : 000014ca;
397 : ffffe077;
398 : fffff6f9;
399 : ffffd611;
400 : fffff277;
401 : 00000de3;
402 : ffffe471;
403 : 0000089b;
404 : 00001a2f;
405 : 000013ec;
406 : 00001a27;
407 : 0000196c;
408 : 00000d8d;
409 : ffffea8b;
410 : ffffc21f;
411 : ffffecf5;
412 : fffff6b5;
413 : fffffef2;
414 : 000018d9;
415 : ffffe02d;
416 : fffffe54;
417 : 00000514;
418 : 00000a89;
419 : 00000c8c;
420 : 00001095;
421 : fffff3ed;
422 : ffffe036;
423 : ffffe045;
424 : ffffd391;
425 : 0000100f;
426 : ffffec13;
427 : ffffd119;
428 : fffffdca;
429 : fffff1aa;
430 : fffff4ba;
431 : ffffefeb;
432 : fffff775;
433 : 00000623;
434 : ffffd3d4;
435 : ffffed10;
436 : 000005d7;
437 : fffff75f;
438 : ffffdba8;
439 : 00000257;
440 : fffffb11;
441 : ffffed83;
442 : ffffe02b;
443 : ffffdb6b;
444 : ffffff98;
445 : fffffaec;
446 : 00000224;
447 : ffffeef3;
448 : 00000b53;
449 : fffffcc5;
450 : fffff8fa;
451 : ffffd514;
452 : ffffe15b;
453 : fffff384;
454 : ffffecea;
455 : ffffd8c0;
456 : fffffcf6;
457 : ffffe3da;
458 : fffff162;
459 : ffffdd72;
460 : fffff31d;
461 : 00001270;
462 : fffff8c3;
463 : 00001495;
464 : 000007e1;
465 : ffffe4ae;
466 : 00002c88;
467 : fffff250;
468 : ffffe97f;
469 : fffffba2;
470 : ffffe93a;
471 : ffffe0bc;
472 : ffffe423;
473 : fffffd97;
474 : 0000040d;
475 : 00000532;
476 : ffffd464;
477 : 00000955;
478 : 00000e19;
479 : 00003926;
480 : 000008bb;
481 : ffffedf1;
482 : ffffff97;
483 : fffff260;
484 : ffffdcee;
485 : fffff838;
486 : ffffe3db;
487 : 000015ef;
488 : 00002163;
489 : 000021eb;
490 : 00001bcb;
491 : 000000e7;
492 : 00002fa1;
493 : fffffd65;
494 : fffff534;
495 : 00003465;
496 : 00000cd8;
497 : 00002718;
498 : 00001c68;
499 : 00000d1b;
500 : 000025d3;
501 : 00002322;
502 : 00004325;
503 : 000054f9;
504 : fffff85b;
505 : 00000814;
506 : 0000047e;
507 : fffff785;
508 : 000000b9;
509 : fffff0ab;
510 : fffff5c9;
511 : ffffe6ea;
512 : ffffdc78;
513 : ffffe5e8;
514 : ffffe1ce;
515 : ffffe453;
516 : fffff63d;
517 : fffff3da;
518 : 000001aa;
519 : 00000022;
520 : 000002b1;
521 : ffffee9f;
522 : ffffe3bd;
523 : fffffa7e;
524 : 00001573;
525 : 00000bb9;
526 : ffffe3dc;
527 : fffffbc9;
528 : 000005e0;
529 : 000009a2;
530 : fffffca4;
531 : ffffe156;
532 : ffffef06;
533 : fffff498;
534 : ffffde5f;
535 : 0000107b;
536 : 00000b58;
537 : 00001059;
538 : 0000186d;
539 : 00001660;
540 : 000021c6;
541 : 0000200a;
542 : 00000cad;
543 : 000009fd;
544 : ffffe7eb;
545 : ffffebda;
546 : ffffe63a;
547 : 000009bd;
548 : fffff2e7;
549 : fffff06e;
550 : 00000053;
551 : 00002a05;
552 : 00002f99;
553 : 00002ad3;
554 : 00000ff8;
555 : 00000a9f;
556 : ffffffda;
557 : 000006f2;
558 : fffff191;
559 : ffffd3f5;
560 : fffff600;
561 : 0000006c;
562 : ffffe8e6;
563 : fffffab5;
564 : 0000097d;
565 : fffffe0a;
566 : 00000158;
567 : fffffe00;
568 : fffffcb8;
569 : 00000283;
570 : fffff417;
571 : ffffdb6b;
572 : ffffe12c;
573 : ffffde39;
574 : ffffede3;
575 : ffffb93a;
576 : fffff6d8;
577 : fffff432;
578 : fffffc1d;
579 : 00001533;
580 : fffff645;
581 : fffff233;
582 : ffffdb6c;
583 : ffffea8d;
584 : ffffe6c5;
585 : fffff251;
586 : ffffca31;
587 : ffffb9bd;
588 : ffffcd6c;
589 : 00000633;
590 : 000014ef;
591 : 00000d67;
592 : ffffdabd;
593 : ffffc3da;
594 : ffffc0d3;
595 : ffff9afa;
596 : ffffa26e;
597 : ffffe0d9;
598 : ffffe89f;
599 : ffffccd3;
600 : ffffd068;
601 : ffffd1ac;
602 : 0000338b;
603 : 000044dd;
604 : 0000031c;
605 : ffffbd07;
606 : ffff91df;
607 : ffff99b3;
608 : ffffa8c6;
609 : ffffc5eb;
610 : ffffe289;
611 : ffffd78f;
612 : ffffca33;
613 : fffffbb5;
614 : 000005d2;
615 : 00005b73;
616 : 00004995;
617 : ffffea77;
618 : ffffe8a5;
619 : ffff8a09;
620 : ffff9228;
621 : ffffd04a;
622 : fffff2e7;
623 : ffffdaca;
624 : ffffe730;
625 : ffffef2d;
626 : fffff501;
627 : 00003ad5;
628 : 00003f39;
629 : 00001309;
630 : ffffea7d;
631 : ffffd727;
632 : ffffa5a2;
633 : ffffc533;
634 : ffffea99;
635 : 0000256e;
636 : 000009af;
637 : fffff0f1;
638 : ffffd3c7;
639 : fffff799;
640 : 00002d23;
641 : 000048aa;
642 : 000033c1;
643 : fffff500;
644 : ffffffe0;
645 : ffffd986;
646 : ffffbea1;
647 : 00000dd3;
648 : 00000f9a;
649 : fffff934;
650 : ffffee87;
651 : 0000021a;
652 : 000020c4;
653 : ffffe5c9;
654 : ffffe6de;
655 : ffffca45;
656 : ffffc9db;
657 : ffffefb1;
658 : ffffea55;
659 : 0000088f;
660 : 00001832;
661 : 00001e71;
662 : ffffef54;
663 : fffffbc0;
664 : 0000107b;
665 : 000021f5;
666 : fffff92a;
667 : ffffd2dc;
668 : ffffccaf;
669 : fffff0e3;
670 : 000012e6;
671 : fffff77d;
672 : 00000229;
673 : 00000aec;
674 : fffff388;
675 : fffff96c;
END;
