WIDTH=32;
DEPTH=676;
ADDRESS_RADIX=DEC;
DATA_RADIX=HEX;
CONTENT BEGIN
0 : fffff983;
1 : fffff4fe;
2 : fffff84c;
3 : ffffd0ed;
4 : ffffe106;
5 : 0000023d;
6 : 000004f2;
7 : ffffcdd7;
8 : ffffb1d2;
9 : ffffe433;
10 : ffffeaeb;
11 : fffffad7;
12 : ffffe064;
13 : 0000384d;
14 : 000006c0;
15 : ffffcd03;
16 : ffffee95;
17 : fffff314;
18 : fffff63b;
19 : ffffcff0;
20 : ffffbcd7;
21 : ffffeb59;
22 : ffffd8eb;
23 : ffffde86;
24 : ffffb0d4;
25 : ffffd735;
26 : 00000802;
27 : 00002813;
28 : 000005a2;
29 : 00000523;
30 : fffff943;
31 : ffffcbbe;
32 : ffffc8ef;
33 : ffffc628;
34 : ffffb4e6;
35 : ffffd15c;
36 : ffffd02e;
37 : ffffba52;
38 : ffffdd77;
39 : ffffb89e;
40 : ffffe445;
41 : ffffd2e4;
42 : ffffcc19;
43 : ffffee15;
44 : ffffe80b;
45 : ffffda44;
46 : ffffa582;
47 : ffff97fb;
48 : ffffd12d;
49 : fffffd93;
50 : ffffdb6d;
51 : ffff9981;
52 : ffffb3ab;
53 : ffffacf3;
54 : fffff0fa;
55 : fffff67b;
56 : 00000adc;
57 : fffff9ee;
58 : ffffef5e;
59 : ffffbf44;
60 : ffff9e2d;
61 : ffffd6a8;
62 : ffffe4bd;
63 : fffff89b;
64 : ffffebe1;
65 : ffff9818;
66 : ffffc36a;
67 : ffffd8ad;
68 : ffffe749;
69 : ffffec38;
70 : 00001372;
71 : ffffe7e2;
72 : ffffc924;
73 : ffffac4b;
74 : 000008b9;
75 : 00000c6e;
76 : fffff8c3;
77 : ffffa030;
78 : ffffad31;
79 : ffffe077;
80 : ffffdf35;
81 : fffff5b9;
82 : fffffc93;
83 : 00000405;
84 : ffffe8a9;
85 : ffffb047;
86 : ffffce55;
87 : 00000691;
88 : ffffd93b;
89 : ffffc6f4;
90 : ffff94f7;
91 : ffffe2a4;
92 : ffffdb3e;
93 : ffffb266;
94 : 000007bf;
95 : 00000b40;
96 : fffffa14;
97 : ffffde0d;
98 : ffffd3a3;
99 : ffffcbd2;
100 : ffffb518;
101 : ffffecae;
102 : 00000524;
103 : 00000c37;
104 : ffffd93c;
105 : ffffde22;
106 : ffffca07;
107 : ffffdf4e;
108 : 0000091e;
109 : fffff8c2;
110 : 00000217;
111 : fffff2e6;
112 : ffffaf04;
113 : fffffbdb;
114 : 0000081d;
115 : ffffed80;
116 : ffffcc66;
117 : ffffbe4c;
118 : ffff9a50;
119 : fffffceb;
120 : 0000387e;
121 : 0000184e;
122 : 000001ca;
123 : fffffaaa;
124 : ffffe24c;
125 : fffff12d;
126 : 000013f2;
127 : 0000175d;
128 : fffff557;
129 : 00001959;
130 : fffff3fd;
131 : 00000ab9;
132 : 00000d9f;
133 : 00002537;
134 : 000004aa;
135 : fffff582;
136 : ffffd313;
137 : ffffe568;
138 : 0000121a;
139 : 0000233b;
140 : 00000a96;
141 : fffffa49;
142 : 0000182a;
143 : ffffc89a;
144 : 000022b6;
145 : 00000e9d;
146 : fffffc9b;
147 : ffffe208;
148 : ffffe4b0;
149 : ffffedd6;
150 : 000007ba;
151 : fffffebe;
152 : fffff234;
153 : ffffee9a;
154 : ffffb058;
155 : ffffc223;
156 : ffffd401;
157 : ffffa2cf;
158 : ffffb3e8;
159 : ffffe3c1;
160 : fffffcde;
161 : fffffa36;
162 : ffffee30;
163 : fffffcee;
164 : ffffedcc;
165 : 00000cd5;
166 : ffffdcf6;
167 : ffffb58b;
168 : ffffe321;
169 : 0000095c;
170 : ffffee83;
171 : fffff5f9;
172 : ffffccd5;
173 : ffffd6a2;
174 : ffffdf4e;
175 : ffffefa0;
176 : fffff2b5;
177 : fffffdec;
178 : ffffe19a;
179 : ffffe505;
180 : ffffd7b2;
181 : fffff21a;
182 : 00001049;
183 : 00000890;
184 : 00002fd6;
185 : 00000edd;
186 : 0000317a;
187 : 000017cc;
188 : 000010b5;
189 : 000014fc;
190 : 000016fc;
191 : 0000027b;
192 : 000016cb;
193 : fffffc84;
194 : ffffd9e6;
195 : ffffe383;
196 : 00002ce6;
197 : 00001435;
198 : 000052ae;
199 : 00003901;
200 : 00003f5c;
201 : 000002d4;
202 : 00000771;
203 : fffff01c;
204 : 00001263;
205 : 000010b2;
206 : fffffdee;
207 : ffffe870;
208 : ffffee82;
209 : ffffd22d;
210 : 00001128;
211 : 00001512;
212 : ffffef52;
213 : 00000fdc;
214 : fffff4aa;
215 : 00000859;
216 : ffffe87b;
217 : 00000bd7;
218 : 000004d2;
219 : 00000b5d;
220 : ffffe889;
221 : 000007dc;
222 : ffffde8b;
223 : 00002159;
224 : ffffb8d2;
225 : ffffc36e;
226 : ffffab7c;
227 : ffffe546;
228 : fffffaaf;
229 : fffffb9d;
230 : 000011f0;
231 : ffffea6a;
232 : 00001b92;
233 : 0000043c;
234 : 00000167;
235 : ffffdf5e;
236 : 00000f6b;
237 : ffffa391;
238 : ffff7a81;
239 : ffff9024;
240 : ffffe119;
241 : 000016b8;
242 : 000011a4;
243 : 0000137f;
244 : 00000cd9;
245 : ffffe9e3;
246 : ffffa472;
247 : 00000207;
248 : 00001d85;
249 : 00000cbe;
250 : ffffd440;
251 : ffffddab;
252 : ffffabf0;
253 : fffffa96;
254 : 00002632;
255 : 000023d1;
256 : fffff8bd;
257 : fffff1ed;
258 : ffffc7bc;
259 : ffffee7b;
260 : 00001645;
261 : 000022ee;
262 : ffffee8e;
263 : ffffad5d;
264 : 00001842;
265 : ffffc0b2;
266 : 000009bd;
267 : 00001db0;
268 : 0000112c;
269 : fffff659;
270 : ffffe623;
271 : ffffd8ab;
272 : 000006ee;
273 : fffffe8d;
274 : ffffc3bd;
275 : ffff910e;
276 : ffffb364;
277 : ffffe9e8;
278 : ffffdee6;
279 : 0000131a;
280 : 0000070f;
281 : ffffefb4;
282 : fffffc31;
283 : 00000c38;
284 : ffffeda2;
285 : 0000109e;
286 : 000017e4;
287 : 00003bc9;
288 : ffff9823;
289 : ffff9b4a;
290 : ffffd38d;
291 : ffffee67;
292 : fffff40a;
293 : fffff5eb;
294 : ffffeff9;
295 : 00002ade;
296 : 00000ea6;
297 : ffffe5df;
298 : 000017d8;
299 : ffffff7e;
300 : fffff996;
301 : ffffe73e;
302 : ffffd1e2;
303 : fffff793;
304 : fffffb43;
305 : fffff945;
306 : ffffea96;
307 : 00001b03;
308 : 000019f7;
309 : 00000b8b;
310 : ffffd91c;
311 : 00001a1d;
312 : 0000046c;
313 : 00000585;
314 : 00003231;
315 : 00003331;
316 : 000051ef;
317 : 00001de6;
318 : 00000cc2;
319 : 000016db;
320 : 00000f3d;
321 : 00001172;
322 : 0000186b;
323 : ffffd884;
324 : ffffd301;
325 : 000002c5;
326 : fffffbf8;
327 : fffff8c3;
328 : ffffe3f1;
329 : 00002b71;
330 : fffff789;
331 : 00000e89;
332 : 000025d0;
333 : ffffdaf0;
334 : 000016ba;
335 : 00000663;
336 : ffffef1c;
337 : fffff01f;
338 : 0000372d;
339 : 00003778;
340 : 00002d75;
341 : 00000d0c;
342 : 00000df3;
343 : 0000414a;
344 : 000006ab;
345 : 00001405;
346 : 00000c7b;
347 : fffffe36;
348 : 00001d6c;
349 : 00003a96;
350 : 00002bdb;
351 : 00002f23;
352 : 00003f53;
353 : ffffe315;
354 : 00001026;
355 : 0000299c;
356 : 00003970;
357 : 00003d95;
358 : 00003e2a;
359 : 00005a26;
360 : 00005160;
361 : 000059de;
362 : 00002b73;
363 : 00002f34;
364 : 00002ffb;
365 : 000013fe;
366 : ffffe906;
367 : ffffdc2f;
368 : 000023de;
369 : 00000b60;
370 : 000005aa;
371 : 00000a3f;
372 : 00002e43;
373 : 00004314;
374 : 00005dc4;
375 : 00001285;
376 : 00002612;
377 : 00001aca;
378 : ffffdf3d;
379 : fffff61e;
380 : ffffe790;
381 : ffffe1e4;
382 : 00000047;
383 : fffffa5a;
384 : fffff8df;
385 : ffffc651;
386 : ffffec67;
387 : fffff320;
388 : fffffc03;
389 : 000026f8;
390 : 00001d21;
391 : ffffd98c;
392 : 00001386;
393 : ffffe8c1;
394 : ffffeeba;
395 : ffffddd0;
396 : fffffe6e;
397 : 00001806;
398 : ffffc461;
399 : fffff61a;
400 : ffffee49;
401 : ffffffa7;
402 : 00001bcf;
403 : 00002704;
404 : 00000981;
405 : ffffebea;
406 : fffff850;
407 : fffff88e;
408 : 00000505;
409 : 00001ade;
410 : 00000afd;
411 : 00000c38;
412 : 00004387;
413 : fffff1ac;
414 : 00000f01;
415 : 00003481;
416 : 0000367f;
417 : 000020bf;
418 : ffffe9b6;
419 : fffff329;
420 : fffff19b;
421 : 00001f73;
422 : 00002444;
423 : 00002cc0;
424 : 00003aff;
425 : 00004a33;
426 : 000002c5;
427 : 00001921;
428 : 000035d2;
429 : 000036a5;
430 : 00000808;
431 : ffffd9a8;
432 : ffffe378;
433 : 00000f25;
434 : 000017c0;
435 : 00001ea8;
436 : fffff36c;
437 : fffff7a6;
438 : ffffeb35;
439 : ffffcac4;
440 : 0000439c;
441 : 00003f1d;
442 : 0000232d;
443 : ffffce36;
444 : ffffe7a3;
445 : ffffe307;
446 : ffffeb2c;
447 : fffffac7;
448 : 00002409;
449 : ffffe226;
450 : ffffefd5;
451 : ffffaf8c;
452 : ffffdd36;
453 : 00004a52;
454 : 00003de4;
455 : 00001873;
456 : ffffc8c1;
457 : ffffef29;
458 : ffffe083;
459 : ffffcf57;
460 : fffffdb0;
461 : 00000fc2;
462 : ffffc2e8;
463 : ffffb984;
464 : ffffb353;
465 : 00000ab0;
466 : 000039c0;
467 : 00002978;
468 : 000016d8;
469 : 00001b6c;
470 : 00000461;
471 : 000009d9;
472 : fffff7ae;
473 : fffff665;
474 : 000007c9;
475 : ffffdf2d;
476 : 000058f4;
477 : 00003b35;
478 : 0000429a;
479 : 00002da9;
480 : 00002895;
481 : 00001105;
482 : 00001fe5;
483 : 000015b5;
484 : 00002f1a;
485 : 00002878;
486 : 00000f4e;
487 : 0000063b;
488 : 000023a4;
489 : 00004a66;
490 : 00000f41;
491 : 00001cb5;
492 : 000020c0;
493 : 00003406;
494 : 00002c75;
495 : 000004fd;
496 : fffff77a;
497 : 000006e3;
498 : ffffd8a8;
499 : 00000d64;
500 : ffffe942;
501 : ffffd5d4;
502 : 00001c95;
503 : 00002464;
504 : 0000224a;
505 : 00003183;
506 : 00002dab;
507 : 0000371a;
508 : 00003e9e;
509 : 00003258;
510 : 00002c60;
511 : 00001269;
512 : 00000a7f;
513 : fffff98a;
514 : 000010b6;
515 : 0000179b;
516 : 00000ce6;
517 : 00000562;
518 : 00002af4;
519 : 0000313f;
520 : 000039bb;
521 : 000047cc;
522 : 00002fd7;
523 : fffff506;
524 : 0000054c;
525 : fffff40b;
526 : ffffec00;
527 : fffff7f7;
528 : ffffec95;
529 : fffff804;
530 : 0000222f;
531 : 000024ed;
532 : 00001def;
533 : 00003e82;
534 : 00003206;
535 : 000003db;
536 : fffff7a2;
537 : fffff876;
538 : ffffdf47;
539 : ffffbdab;
540 : ffffc697;
541 : ffffdc7b;
542 : fffff9c5;
543 : 00001e62;
544 : 00000a79;
545 : 00002050;
546 : 000038d6;
547 : 00003fb0;
548 : 000022b0;
549 : 000031d7;
550 : fffff909;
551 : ffffb838;
552 : ffffacd7;
553 : ffffb4ca;
554 : ffffbfbd;
555 : ffffec86;
556 : fffff15f;
557 : 00000c7e;
558 : 000016bc;
559 : 000035ec;
560 : 000027de;
561 : 00001bd4;
562 : 00000b4c;
563 : 00001f69;
564 : ffffdd2d;
565 : ffffd7e5;
566 : ffffdecb;
567 : ffffb01b;
568 : 0000043d;
569 : fffffd56;
570 : 00001a6a;
571 : 000035d1;
572 : 000037e3;
573 : 00004042;
574 : 000038f7;
575 : 00003ea9;
576 : 0000149a;
577 : 000000e6;
578 : ffffdbfe;
579 : ffffd350;
580 : ffffac41;
581 : ffffd596;
582 : fffffd5b;
583 : 0000208e;
584 : 00002459;
585 : 000047e6;
586 : 000038fc;
587 : 0000106f;
588 : 00000cf3;
589 : 0000194d;
590 : ffffd46b;
591 : ffffa401;
592 : ffffb417;
593 : ffffb91c;
594 : ffffcdec;
595 : 00000414;
596 : 00001d70;
597 : 0000406f;
598 : 00003a24;
599 : 00002d2c;
600 : 000002cf;
601 : 00000c97;
602 : 000013d4;
603 : ffff7858;
604 : ffff98a2;
605 : ffffb42a;
606 : ffffc10e;
607 : 000000bf;
608 : fffff9d7;
609 : 00002017;
610 : 00003341;
611 : 0000410b;
612 : ffffe257;
613 : 00001a26;
614 : 00002bd2;
615 : fffffef3;
616 : ffffa8d9;
617 : ffffb738;
618 : fffff4df;
619 : 0000015c;
620 : 00001f35;
621 : 00003630;
622 : 00002cc8;
623 : 00003c14;
624 : 00003679;
625 : 00004c40;
626 : 00004d1d;
627 : 00004569;
628 : 00000e88;
629 : 000022a8;
630 : 00000945;
631 : 000001e5;
632 : 000027ac;
633 : 00003576;
634 : 00002945;
635 : 00002fe0;
636 : 0000383c;
637 : 00002a15;
638 : 00005e87;
639 : 000030f7;
640 : 00002f14;
641 : ffffe6e7;
642 : ffffac9e;
643 : ffffc69c;
644 : fffffa70;
645 : 000013a0;
646 : 00002d9b;
647 : 00005b78;
648 : 00001567;
649 : 0000493d;
650 : 0000401b;
651 : 0000391a;
652 : 00000a77;
653 : fffff208;
654 : ffffdc78;
655 : ffffac69;
656 : ffffe160;
657 : 000002e9;
658 : 00002837;
659 : 00002a54;
660 : 00003845;
661 : 00002f4f;
662 : 00003b53;
663 : 0000391b;
664 : 00003adf;
665 : 00004293;
666 : 000030f7;
667 : 00004f04;
668 : 0000466c;
669 : 00004bde;
670 : 00005a64;
671 : 00003a02;
672 : 00003fcf;
673 : 00004807;
674 : 00003907;
675 : 000035d6;
END;
