WIDTH=32;
DEPTH=676;
ADDRESS_RADIX=DEC;
DATA_RADIX=HEX;
CONTENT BEGIN
0 : 0000093e;
1 : fffffc90;
2 : fffffa57;
3 : ffffe0e5;
4 : fffffa5f;
5 : fffff541;
6 : 00002a19;
7 : 000017df;
8 : 00001a13;
9 : ffffe6ec;
10 : fffff097;
11 : ffffea03;
12 : ffffde4e;
13 : 00002bec;
14 : fffffdbd;
15 : ffffe10b;
16 : ffffe7ba;
17 : ffffe882;
18 : 00003806;
19 : 00001f16;
20 : 0000131f;
21 : 00002150;
22 : 000004d4;
23 : ffffb29b;
24 : fffff292;
25 : 00000a05;
26 : ffffc383;
27 : ffffc843;
28 : ffffd11f;
29 : fffff752;
30 : ffffe2f2;
31 : ffffd5d8;
32 : fffff5d4;
33 : ffffe5e8;
34 : ffffe1c5;
35 : ffffdbc2;
36 : ffffd605;
37 : ffffe1bd;
38 : ffff7e46;
39 : 00000b0d;
40 : ffffdd93;
41 : ffffead7;
42 : 000010ac;
43 : ffffcd74;
44 : 00000cb7;
45 : 00000aae;
46 : 00000455;
47 : 00001388;
48 : fffff643;
49 : 000003d9;
50 : 00000f82;
51 : ffffe496;
52 : 00002288;
53 : fffffeea;
54 : 00000067;
55 : 00000c3b;
56 : 000020b4;
57 : 00000983;
58 : ffffec78;
59 : fffffe94;
60 : 00001125;
61 : ffffe5ea;
62 : ffffd66b;
63 : ffffdbec;
64 : ffffb05d;
65 : 000011c8;
66 : fffff0b4;
67 : fffffc88;
68 : ffffed06;
69 : 00001bef;
70 : ffffde20;
71 : 0000009d;
72 : 00000b2b;
73 : 00000490;
74 : ffffedc4;
75 : 00000451;
76 : ffffe52b;
77 : ffffef58;
78 : ffffea98;
79 : 0000137e;
80 : fffffab8;
81 : ffffe1d2;
82 : 00000032;
83 : ffffd396;
84 : ffffc6bb;
85 : ffffe6d5;
86 : ffffe7a9;
87 : ffffed0a;
88 : fffff8df;
89 : 0000099b;
90 : ffffa6ff;
91 : ffffcc6e;
92 : 00000bcf;
93 : 00000b6d;
94 : ffffff8d;
95 : ffffeb80;
96 : ffffc0eb;
97 : ffffc0b0;
98 : ffffbbd8;
99 : ffffdca9;
100 : 00000ca8;
101 : 000006bb;
102 : 00000a17;
103 : fffffdc7;
104 : fffffb8b;
105 : 0000113e;
106 : 00001d1c;
107 : fffff1f4;
108 : fffff231;
109 : ffffda01;
110 : ffffcb0c;
111 : ffffddf2;
112 : 00001dc5;
113 : 00000589;
114 : 00000ebb;
115 : 00000c48;
116 : fffff699;
117 : fffff8a3;
118 : 000012c0;
119 : 0000072f;
120 : 00000493;
121 : 000005e3;
122 : fffff317;
123 : fffffe6e;
124 : 00000817;
125 : 00000ed7;
126 : fffff8bf;
127 : 00001620;
128 : 000002ec;
129 : 00001002;
130 : 00001c0a;
131 : 000016bd;
132 : 000010a3;
133 : fffff316;
134 : 0000092e;
135 : fffff26a;
136 : fffffa5d;
137 : ffffdca4;
138 : ffffe168;
139 : ffffefcf;
140 : ffffe229;
141 : ffffe8c7;
142 : 0000254e;
143 : ffffec4d;
144 : ffffdebe;
145 : 000003ac;
146 : 0000166b;
147 : 00000f2d;
148 : 00000d5b;
149 : 00001217;
150 : 000018dc;
151 : 000002d9;
152 : fffffd0c;
153 : fffff049;
154 : 000007cd;
155 : ffffb930;
156 : ffffe83c;
157 : 00001dea;
158 : ffffed0b;
159 : ffffdfe3;
160 : ffffc636;
161 : ffffef28;
162 : fffff4ee;
163 : ffffe6d1;
164 : ffffd876;
165 : ffffac1d;
166 : ffff9ed2;
167 : ffffbb64;
168 : ffffd9b1;
169 : 00000064;
170 : fffffb44;
171 : ffffdcbb;
172 : fffffe01;
173 : 00000570;
174 : fffffc6e;
175 : fffff4a1;
176 : ffffe541;
177 : ffffe50c;
178 : ffffc55a;
179 : ffffd60b;
180 : 00000773;
181 : 000014f3;
182 : fffff4cb;
183 : 00001dcb;
184 : ffffe777;
185 : fffffa2a;
186 : ffffecba;
187 : fffff1ca;
188 : 00001c46;
189 : 000013b9;
190 : 000001b5;
191 : 00000fc8;
192 : fffff326;
193 : fffffb42;
194 : ffffc6f1;
195 : fffff806;
196 : ffffdd75;
197 : ffffc237;
198 : fffff6a7;
199 : ffffdf4b;
200 : ffffed6c;
201 : ffffea13;
202 : 000006c3;
203 : ffffff7d;
204 : ffffffb8;
205 : 000002cf;
206 : 00001ea2;
207 : ffffd4d4;
208 : 00002969;
209 : 00000686;
210 : ffffd0ac;
211 : ffffeefb;
212 : fffffd66;
213 : 00000f3d;
214 : 00000881;
215 : 0000064a;
216 : 00000d3d;
217 : 0000227a;
218 : 000007e8;
219 : 000011db;
220 : 00000d02;
221 : 000045cb;
222 : 00000dee;
223 : fffff568;
224 : ffffccf0;
225 : 00001df3;
226 : fffffdcd;
227 : 0000010a;
228 : 0000004c;
229 : 00003490;
230 : 00002f85;
231 : 0000232e;
232 : 00001c34;
233 : ffffec6e;
234 : 0000239d;
235 : fffffa47;
236 : ffffda0e;
237 : fffffb56;
238 : fffff106;
239 : ffffeafc;
240 : 00001aa7;
241 : 000012d8;
242 : 0000075a;
243 : 000013a3;
244 : 000016ef;
245 : 00002450;
246 : 000001b0;
247 : fffff56f;
248 : fffff710;
249 : 000007ef;
250 : fffffbe5;
251 : 00000dff;
252 : 000036be;
253 : 00004f17;
254 : fffff456;
255 : 0000021c;
256 : fffffc12;
257 : 00000f72;
258 : 00003096;
259 : 00000b8d;
260 : fffff5a2;
261 : 00001fe5;
262 : 000023cc;
263 : 00002de1;
264 : 00001b57;
265 : 00003ad8;
266 : 000033e2;
267 : ffffd4bc;
268 : ffffefad;
269 : 00000071;
270 : 00000fbf;
271 : 000023a4;
272 : 0000197b;
273 : 000005cb;
274 : 000017ea;
275 : 00001d97;
276 : 0000187c;
277 : 00001edc;
278 : 00003067;
279 : 000002bf;
280 : ffffe5eb;
281 : 00001217;
282 : 000014b2;
283 : fffff924;
284 : 00000df2;
285 : 00000989;
286 : 00001ba1;
287 : 000034c4;
288 : 00000d31;
289 : 00000ca4;
290 : 00003050;
291 : 000022b2;
292 : ffffffd5;
293 : fffffc57;
294 : ffffe22c;
295 : fffffab0;
296 : fffff142;
297 : fffff86c;
298 : fffff0e3;
299 : 00000887;
300 : ffffedaf;
301 : 00002164;
302 : 00001950;
303 : 000037f9;
304 : 00001520;
305 : ffffeaa6;
306 : ffffd241;
307 : ffffd673;
308 : ffffe0cf;
309 : ffffbe67;
310 : ffffd818;
311 : ffffd15e;
312 : fffff903;
313 : fffffcbb;
314 : ffffd8c1;
315 : 00000a62;
316 : 0000077f;
317 : ffffe3eb;
318 : ffffa3c9;
319 : ffffac5f;
320 : ffffd673;
321 : ffffe832;
322 : ffffb62d;
323 : ffffdfab;
324 : ffffbb29;
325 : 0000021a;
326 : 000001c8;
327 : ffffe6ea;
328 : ffffc738;
329 : ffff9f72;
330 : ffff8a2f;
331 : ffff9f01;
332 : ffff8fcb;
333 : ffffb2d0;
334 : ffffbbf4;
335 : ffffa18b;
336 : ffffdaf4;
337 : fffff60e;
338 : 0000133c;
339 : fffff9c1;
340 : fffff7cb;
341 : 00000a33;
342 : ffffdb43;
343 : ffffbc4f;
344 : ffffddff;
345 : fffff418;
346 : ffffac4a;
347 : ffffe7d4;
348 : 00000adf;
349 : 0000024d;
350 : 00000271;
351 : 00000be1;
352 : ffffdd85;
353 : fffff231;
354 : fffff649;
355 : ffffe843;
356 : fffffe83;
357 : 00000a55;
358 : 00002fc2;
359 : ffffdb1d;
360 : ffffe420;
361 : fffff76c;
362 : ffffd312;
363 : 00000652;
364 : ffffffaa;
365 : ffffe7ae;
366 : fffff0b5;
367 : ffffeabb;
368 : fffff7ec;
369 : ffffe023;
370 : ffffda0c;
371 : ffffed54;
372 : 00002300;
373 : 0000043c;
374 : fffffad2;
375 : ffffd2f8;
376 : 0000087d;
377 : 00000f40;
378 : 00000266;
379 : ffffe79c;
380 : ffffef12;
381 : ffffe9cc;
382 : fffff0c6;
383 : 00000020;
384 : ffffffdc;
385 : 00001ead;
386 : 000035e5;
387 : 0000373a;
388 : 00001894;
389 : fffffacf;
390 : 0000077e;
391 : fffff3d0;
392 : 000008c3;
393 : fffff6dc;
394 : 00000375;
395 : 000010de;
396 : 00001837;
397 : 00001931;
398 : 00001541;
399 : 00004cd3;
400 : 0000365c;
401 : 000054f3;
402 : fffff49c;
403 : 00000045;
404 : 000005da;
405 : 000021e5;
406 : 00000053;
407 : 0000210a;
408 : ffffec71;
409 : fffff4b8;
410 : 000042c9;
411 : 0000286d;
412 : 0000260d;
413 : 000040df;
414 : 00005ca9;
415 : fffff681;
416 : ffffe487;
417 : 0000158e;
418 : 00002558;
419 : 00000d2a;
420 : 00000996;
421 : fffff8f6;
422 : ffffdcc4;
423 : 00003907;
424 : 00004a07;
425 : 00001aba;
426 : 00004165;
427 : 00003b25;
428 : 00000387;
429 : ffffe5f0;
430 : 00001951;
431 : 00003741;
432 : 000028f2;
433 : ffffeb8b;
434 : 000005db;
435 : 0000026d;
436 : 0000081a;
437 : 0000201e;
438 : 000013ad;
439 : ffffff28;
440 : ffffe87a;
441 : 00002070;
442 : fffffd8b;
443 : 000011b5;
444 : 00001bfd;
445 : 000017e0;
446 : 000010c0;
447 : ffffe9f6;
448 : fffff6be;
449 : 00000cfd;
450 : fffff9b4;
451 : 00001669;
452 : 00001520;
453 : ffffe781;
454 : 0000111a;
455 : 0000098f;
456 : 00000fa9;
457 : 000001b0;
458 : 000001c1;
459 : 00002c42;
460 : 00001cfa;
461 : ffffd333;
462 : ffffef15;
463 : ffffe907;
464 : ffffec02;
465 : ffffe7e5;
466 : ffffc311;
467 : 00000c74;
468 : 00000596;
469 : fffff857;
470 : 00001024;
471 : ffffee83;
472 : 00000e82;
473 : 00001070;
474 : ffffd354;
475 : ffff993a;
476 : ffff88f0;
477 : ffffaffa;
478 : ffffa38a;
479 : ffffb833;
480 : 000010f5;
481 : fffffc4f;
482 : ffffef78;
483 : 00000304;
484 : fffff774;
485 : fffff2de;
486 : fffff7f7;
487 : ffffe274;
488 : ffff9bd6;
489 : ffffb9bb;
490 : ffffb0e2;
491 : ffffd661;
492 : ffffc5ec;
493 : 000003e4;
494 : 00000134;
495 : ffffed0f;
496 : ffffc784;
497 : ffffc640;
498 : ffffa92b;
499 : ffffbf81;
500 : ffffdea0;
501 : ffffc789;
502 : ffffd35a;
503 : ffffc943;
504 : ffffecf4;
505 : 000002ac;
506 : 0000052f;
507 : 0000028e;
508 : fffffc0e;
509 : 00000250;
510 : fffff61e;
511 : 000003e1;
512 : fffff44f;
513 : ffffff98;
514 : ffffef5e;
515 : ffffdd6d;
516 : ffffd69e;
517 : ffffe577;
518 : 00000220;
519 : 000008ac;
520 : fffff567;
521 : fffff628;
522 : fffffa16;
523 : fffff098;
524 : fffff7b1;
525 : fffffe41;
526 : 00000db4;
527 : 000012d8;
528 : fffffe4e;
529 : 00001a01;
530 : ffffe799;
531 : fffffbed;
532 : ffffebd2;
533 : fffff6a7;
534 : fffffb7a;
535 : 000009bb;
536 : 000001f3;
537 : fffffc3a;
538 : 000003fc;
539 : 00002179;
540 : 000010ca;
541 : 0000099d;
542 : fffff957;
543 : 000001a8;
544 : 00000ff2;
545 : fffff10b;
546 : 0000101c;
547 : 00000dfb;
548 : fffff703;
549 : ffffefe7;
550 : ffffffc6;
551 : ffffe89b;
552 : fffff02b;
553 : 0000174e;
554 : 0000098d;
555 : 000014ae;
556 : ffffe3a1;
557 : 00000bd1;
558 : 0000198d;
559 : 0000166b;
560 : 000003d4;
561 : fffffd20;
562 : ffffe193;
563 : fffffa40;
564 : ffffd89a;
565 : ffffda74;
566 : ffffcecf;
567 : ffffe745;
568 : ffffbde0;
569 : ffffdaf3;
570 : fffff511;
571 : ffffe7e2;
572 : fffffbb4;
573 : 00001638;
574 : 00000146;
575 : 00001b01;
576 : 000006cc;
577 : ffffdfba;
578 : ffffb9d1;
579 : ffff94d3;
580 : ffffaa1c;
581 : ffffd7f5;
582 : ffffe965;
583 : fffff83d;
584 : fffff9ea;
585 : fffff26a;
586 : fffff71f;
587 : ffffdd1b;
588 : fffff770;
589 : ffffcc78;
590 : ffff9a16;
591 : ffff8c8c;
592 : ffffb8b4;
593 : ffffbece;
594 : ffffd5e9;
595 : ffffbb82;
596 : ffffd59a;
597 : 000002ae;
598 : fffff642;
599 : ffffeded;
600 : ffffbfbe;
601 : ffffac84;
602 : ffffa754;
603 : ffffb85f;
604 : ffffc524;
605 : 00001875;
606 : ffffdbe3;
607 : ffffdd3d;
608 : ffffd61d;
609 : ffffd93f;
610 : ffffd27c;
611 : fffffc23;
612 : ffffe078;
613 : ffffbb06;
614 : ffffad7c;
615 : ffffcede;
616 : fffff2f2;
617 : fffffdd6;
618 : fffff8fb;
619 : 00000597;
620 : ffffc28a;
621 : ffffd9f8;
622 : ffffba34;
623 : fffffab5;
624 : 00000402;
625 : ffffc53c;
626 : ffffb1c3;
627 : ffffa6fa;
628 : ffffe435;
629 : fffff515;
630 : 000017b7;
631 : 000008c5;
632 : fffff61e;
633 : ffffe1df;
634 : ffffc858;
635 : ffffb08b;
636 : fffff60d;
637 : 00000335;
638 : ffffb8c6;
639 : ffffbb24;
640 : ffffb65a;
641 : ffffe63f;
642 : fffffeb1;
643 : 0000213b;
644 : fffff85d;
645 : 00000cbe;
646 : ffffef27;
647 : ffffefb5;
648 : 000005d9;
649 : 00000069;
650 : fffff7cd;
651 : 00000bbf;
652 : ffffb9b6;
653 : ffffca03;
654 : fffff726;
655 : 0000349c;
656 : 00005ca5;
657 : 00001405;
658 : 00003988;
659 : fffff30f;
660 : fffff45c;
661 : fffff58a;
662 : 0000093f;
663 : fffff8bf;
664 : fffffa0f;
665 : 00000b91;
666 : 00000759;
667 : 00001e92;
668 : 00001b33;
669 : 0000068a;
670 : 0000134b;
671 : 00000ec2;
672 : 00000bb5;
673 : fffffb33;
674 : 0000057c;
675 : fffffd7e;
END;
