WIDTH=32;
DEPTH=676;
ADDRESS_RADIX=DEC;
DATA_RADIX=HEX;
CONTENT BEGIN
0 : ffffffe9;
1 : ffffea6d;
2 : 0000015a;
3 : 00001735;
4 : 000005ed;
5 : 00001cb8;
6 : 000018ce;
7 : 00005ae0;
8 : 000022b9;
9 : ffffcd29;
10 : ffffe62b;
11 : fffff746;
12 : ffffce39;
13 : ffffd7b9;
14 : ffffedfe;
15 : 0000213c;
16 : 00002dc4;
17 : 00002358;
18 : 0000276e;
19 : 00003767;
20 : 00003147;
21 : ffffffa2;
22 : ffffec8c;
23 : fffffe37;
24 : ffffe575;
25 : ffffe57d;
26 : 0000189e;
27 : ffffda4d;
28 : 000000c8;
29 : 00000965;
30 : 000017ea;
31 : 00001764;
32 : fffffa74;
33 : fffffcc8;
34 : 00001918;
35 : 00000e23;
36 : 00000795;
37 : ffff8365;
38 : ffffa44b;
39 : 00000500;
40 : 000005b4;
41 : 00000e13;
42 : 000017a1;
43 : 0000097a;
44 : 000011f1;
45 : 00001407;
46 : 00001123;
47 : 0000003e;
48 : ffffe0ac;
49 : ffffd078;
50 : ffffb035;
51 : 000005c7;
52 : 00001687;
53 : 00002055;
54 : 00000976;
55 : 0000170e;
56 : 00001504;
57 : fffffe3b;
58 : 000017ab;
59 : 00000025;
60 : ffffeb99;
61 : ffffed66;
62 : fffffcce;
63 : ffffe1da;
64 : ffffe756;
65 : 000005ea;
66 : 0000043e;
67 : 00000915;
68 : 0000297e;
69 : 00000bb2;
70 : fffffe0d;
71 : fffff015;
72 : fffff59a;
73 : ffffd36d;
74 : ffffccff;
75 : fffff7aa;
76 : fffffa92;
77 : 000020c6;
78 : ffffc03e;
79 : ffffc358;
80 : ffffe02f;
81 : fffff468;
82 : 000001da;
83 : ffffefff;
84 : ffffdf78;
85 : ffffcfe1;
86 : ffffeca9;
87 : ffffe6bb;
88 : ffffe62d;
89 : 00003415;
90 : 00005497;
91 : ffffcfd3;
92 : ffffdfed;
93 : ffffd10a;
94 : ffffe38b;
95 : ffffc864;
96 : ffffe2f4;
97 : ffffe719;
98 : ffffee58;
99 : ffffed56;
100 : fffffcd9;
101 : 00001398;
102 : 000048be;
103 : 00006273;
104 : 00001b24;
105 : 000002a1;
106 : 0000010c;
107 : ffffe9b0;
108 : fffffc92;
109 : 00000f3c;
110 : fffffdd3;
111 : 0000042e;
112 : 000000f9;
113 : 000016c6;
114 : 0000222c;
115 : 00002b6f;
116 : 00003558;
117 : 00000ca3;
118 : 0000083b;
119 : 0000001c;
120 : 000007b8;
121 : 00000c0e;
122 : 000015fe;
123 : 000015c2;
124 : 00002252;
125 : 00002a81;
126 : 00000709;
127 : 0000188d;
128 : 00002d6b;
129 : 00001828;
130 : 00002fe6;
131 : 0000287f;
132 : 000001b3;
133 : ffffff25;
134 : 00000e28;
135 : 00000694;
136 : fffffdeb;
137 : 00000ed8;
138 : 00001239;
139 : 00002430;
140 : 0000052b;
141 : 000008a2;
142 : 000002cc;
143 : 00002bbe;
144 : 000015fe;
145 : 00002d99;
146 : 00001efb;
147 : 00000e3d;
148 : fffff6cc;
149 : 00000027;
150 : fffffdbf;
151 : 00001dd6;
152 : 000006ea;
153 : ffffda15;
154 : ffffe0e1;
155 : 0000072c;
156 : ffffa1ef;
157 : ffff9439;
158 : ffffcead;
159 : ffffeca8;
160 : 00000902;
161 : 00001a9e;
162 : 000012cd;
163 : 0000051c;
164 : fffff213;
165 : ffffd854;
166 : ffffda66;
167 : ffffd8d1;
168 : 000017c2;
169 : fffff59a;
170 : fffffe8a;
171 : 000002a2;
172 : ffffc862;
173 : 00000c3e;
174 : 00002c16;
175 : fffff212;
176 : 00000d7b;
177 : 00001ab5;
178 : ffffd2d7;
179 : ffffd4dd;
180 : 0000249b;
181 : 00001761;
182 : fffffaa3;
183 : 00001526;
184 : ffffe67b;
185 : 0000051b;
186 : 0000109a;
187 : 000007e8;
188 : 00000522;
189 : fffffde9;
190 : fffffbff;
191 : ffffec93;
192 : fffff96c;
193 : ffffecfc;
194 : fffffd98;
195 : ffffd6dc;
196 : fffff45b;
197 : 000005d2;
198 : ffffdb80;
199 : ffffd947;
200 : ffffe709;
201 : fffff62e;
202 : ffffeef1;
203 : 00000667;
204 : 000003d8;
205 : fffff04e;
206 : ffffee29;
207 : ffffe6b6;
208 : 00002ed5;
209 : ffff9fb3;
210 : ffffd4c0;
211 : ffffbc94;
212 : ffffe84f;
213 : fffff4f0;
214 : 0000147e;
215 : 0000116e;
216 : 00000d9b;
217 : fffffbb2;
218 : fffff9f5;
219 : 00001558;
220 : ffffd35e;
221 : 00000940;
222 : 000024df;
223 : ffffd7ca;
224 : ffffcbc7;
225 : ffffb9c6;
226 : 000003c3;
227 : 0000001a;
228 : ffffff22;
229 : 000000cb;
230 : 00000c47;
231 : 000008fa;
232 : 00000640;
233 : ffffed78;
234 : ffffef8a;
235 : ffffd707;
236 : ffffa2eb;
237 : ffffc003;
238 : ffffcb69;
239 : ffffcecb;
240 : ffffe7a3;
241 : ffffedad;
242 : fffff6af;
243 : 00000e73;
244 : 000014db;
245 : 00000041;
246 : fffff496;
247 : ffffb459;
248 : ffffde9b;
249 : ffff9ecd;
250 : ffff8c75;
251 : ffff8ff5;
252 : ffffa57e;
253 : ffffd891;
254 : ffffec4e;
255 : ffffe965;
256 : 000002b6;
257 : fffff922;
258 : fffff62f;
259 : 000007c3;
260 : ffffc7f3;
261 : ffffcfae;
262 : ffffb5fe;
263 : ffff9920;
264 : ffffba74;
265 : ffffcbec;
266 : 000001a8;
267 : fffffeeb;
268 : ffffefc1;
269 : 00000257;
270 : ffffe1c3;
271 : ffffdb43;
272 : 00000885;
273 : ffffccc6;
274 : ffffebc2;
275 : 0000255c;
276 : fffffbc2;
277 : 000005d0;
278 : fffffc0a;
279 : 000006db;
280 : 00000737;
281 : ffffef2f;
282 : ffffe143;
283 : ffffe7b2;
284 : fffff74a;
285 : ffffddfc;
286 : ffffc877;
287 : fffff42a;
288 : 0000136f;
289 : 00000674;
290 : 0000109e;
291 : fffffdbf;
292 : fffff070;
293 : 00000d7b;
294 : fffff9ce;
295 : 000005a2;
296 : 0000039e;
297 : ffffecff;
298 : ffffd97a;
299 : 000004d9;
300 : 00001176;
301 : 00000803;
302 : 0000179e;
303 : 00001822;
304 : ffffe15b;
305 : ffffe771;
306 : 00000216;
307 : ffffff19;
308 : 000012f3;
309 : fffffef4;
310 : ffffe4e7;
311 : fffffe7c;
312 : 0000058f;
313 : 000036cd;
314 : 000018e5;
315 : fffffec5;
316 : ffffd2fa;
317 : ffffb6c2;
318 : ffffd0f7;
319 : ffffea80;
320 : 000012cd;
321 : 00000c8f;
322 : fffff051;
323 : ffffddb9;
324 : 00002004;
325 : fffffc28;
326 : ffffebf7;
327 : ffff72c2;
328 : ffff7732;
329 : ffff51ae;
330 : ffff746d;
331 : ffff6806;
332 : ffff47b2;
333 : ffffa708;
334 : ffffbe6a;
335 : ffffb6f8;
336 : ffffc771;
337 : 0000096b;
338 : 00000764;
339 : fffffeba;
340 : fffffe5d;
341 : 00002b79;
342 : 0000193b;
343 : fffffcad;
344 : ffffe0f3;
345 : ffffde9d;
346 : ffffdba6;
347 : ffffdec0;
348 : 00000ab5;
349 : 00001a3c;
350 : 0000130d;
351 : 00000b88;
352 : fffff1e1;
353 : 00002007;
354 : fffffd35;
355 : 00000370;
356 : ffffe4c8;
357 : ffffdff8;
358 : ffffcd7d;
359 : ffffadcb;
360 : ffff6f6d;
361 : ffffd36a;
362 : 0000157b;
363 : 00000dcc;
364 : 00001d24;
365 : ffffffe3;
366 : 000001ec;
367 : ffffefa7;
368 : 00000ec6;
369 : fffff68d;
370 : fffff846;
371 : 00000491;
372 : ffffe64a;
373 : 00000297;
374 : ffffe815;
375 : 00003865;
376 : fffffafe;
377 : 00001dcd;
378 : 00000a81;
379 : 00000960;
380 : 00001690;
381 : 00000a0d;
382 : ffffef45;
383 : ffffffdd;
384 : 00000f4f;
385 : 00001e8d;
386 : 00003a02;
387 : 00002af6;
388 : 00003a22;
389 : fffff64b;
390 : 00002226;
391 : 00001e34;
392 : fffff63c;
393 : ffffe470;
394 : fffff9c0;
395 : ffffc1ab;
396 : fffffb56;
397 : 0000256d;
398 : 000039b3;
399 : 00004a8a;
400 : 00005a6b;
401 : 000031f3;
402 : 0000099a;
403 : ffffe990;
404 : ffffedd2;
405 : ffffdbe7;
406 : ffffbf2e;
407 : ffffad36;
408 : ffffd4e9;
409 : ffffe95e;
410 : 000022c2;
411 : 0000606d;
412 : 0000500a;
413 : 0000377b;
414 : 00002321;
415 : 000023aa;
416 : fffff8ef;
417 : ffffccc5;
418 : ffffe3de;
419 : ffffc192;
420 : ffffc169;
421 : ffffd8b6;
422 : ffffe8f9;
423 : fffffb59;
424 : 00001519;
425 : 00000d3d;
426 : ffffda18;
427 : ffffca3e;
428 : 00003535;
429 : 00000a6c;
430 : fffff743;
431 : fffff566;
432 : ffffe1ab;
433 : 0000049b;
434 : ffffef71;
435 : 00000e0d;
436 : ffffff61;
437 : ffffd304;
438 : ffffec30;
439 : ffffae38;
440 : ffffb20e;
441 : 00002346;
442 : 0000121b;
443 : 00000286;
444 : 00001528;
445 : 00000e06;
446 : 0000208b;
447 : 00000e2e;
448 : fffff593;
449 : fffffa2b;
450 : ffffe11e;
451 : ffffd09a;
452 : ffffddcd;
453 : fffff8f3;
454 : 000036e0;
455 : 00000a19;
456 : 000011bd;
457 : 00002d0e;
458 : 00001b8e;
459 : 00001aed;
460 : ffffd702;
461 : ffffca7e;
462 : 000012f1;
463 : ffffd478;
464 : fffff9b9;
465 : 000011f5;
466 : fffff7ca;
467 : 000029ed;
468 : 000020e3;
469 : 00001910;
470 : 000006c6;
471 : 00001332;
472 : 000007cb;
473 : fffff5d6;
474 : ffffda7f;
475 : fffff425;
476 : 00000ab2;
477 : 0000351e;
478 : 00003a5c;
479 : 0000224b;
480 : 00001299;
481 : fffffa42;
482 : fffff6e3;
483 : 00001f81;
484 : fffff888;
485 : fffff32f;
486 : ffffc61e;
487 : ffffce3b;
488 : ffffc7c2;
489 : ffffe80d;
490 : 00001ab2;
491 : 00001ec7;
492 : 00002593;
493 : 00001188;
494 : fffff264;
495 : ffffc08f;
496 : ffffe249;
497 : ffffa9ca;
498 : ffffd7c9;
499 : fffff79d;
500 : 00000472;
501 : ffffbbb6;
502 : ffffc42f;
503 : ffffe524;
504 : ffffe7b6;
505 : 00000bcd;
506 : 00000d06;
507 : 0000101b;
508 : 000003eb;
509 : fffff923;
510 : 0000036f;
511 : 0000242c;
512 : 00001ae2;
513 : 00000a9e;
514 : 00000ad0;
515 : ffffef46;
516 : ffffe012;
517 : fffff728;
518 : 00000818;
519 : 00000f0f;
520 : 000014af;
521 : 000001b3;
522 : 00001785;
523 : 00001a2a;
524 : 00002161;
525 : 00000a9f;
526 : 0000137c;
527 : 00000b2a;
528 : 000004b8;
529 : fffff11f;
530 : 00000602;
531 : ffffe58d;
532 : 000004b8;
533 : 00000363;
534 : 00001a3b;
535 : 0000019c;
536 : 000014b4;
537 : 00000ee7;
538 : 00000ec8;
539 : 00000442;
540 : 00001894;
541 : 0000017f;
542 : ffffe09c;
543 : fffff7ef;
544 : ffffe307;
545 : 0000120a;
546 : 00000a57;
547 : fffff722;
548 : 000002cd;
549 : 00000258;
550 : 00001322;
551 : 000012b8;
552 : 00000550;
553 : 00000048;
554 : ffffd632;
555 : ffffc728;
556 : ffffe182;
557 : ffffed99;
558 : fffff718;
559 : fffffe36;
560 : 00002f86;
561 : 00002f8a;
562 : 00002915;
563 : ffffe7d4;
564 : 00001317;
565 : 00000557;
566 : ffffff11;
567 : ffffe620;
568 : ffffcadc;
569 : ffffe1af;
570 : ffffeeba;
571 : 00001326;
572 : fffffead;
573 : 00001fe0;
574 : 00005a0c;
575 : 00003b29;
576 : 00003304;
577 : 00003e01;
578 : 00002716;
579 : fffff4aa;
580 : ffffcab7;
581 : ffffb9db;
582 : ffffecf8;
583 : 00000223;
584 : 0000340f;
585 : 000004d4;
586 : 00002f40;
587 : 00005a3b;
588 : 00005d17;
589 : 00004f3a;
590 : 00003db3;
591 : 0000178a;
592 : 00000c10;
593 : ffffe30f;
594 : ffffd278;
595 : fffffe03;
596 : 000022d6;
597 : 0000218c;
598 : 0000177e;
599 : 000004a5;
600 : 00001927;
601 : 000016f2;
602 : 000001d5;
603 : 00000b4e;
604 : 0000125c;
605 : ffffdd2a;
606 : fffff40f;
607 : 00000044;
608 : 00003441;
609 : 00004239;
610 : 00004d6a;
611 : 00001690;
612 : fffffc18;
613 : ffffe86b;
614 : ffffea9f;
615 : ffffc285;
616 : ffffd04f;
617 : 00000689;
618 : fffffcde;
619 : fffffda1;
620 : 000038d5;
621 : 00003fa6;
622 : 000045ca;
623 : 000016a3;
624 : 000015b9;
625 : ffffdd6d;
626 : ffffcde9;
627 : ffffb091;
628 : ffffb34b;
629 : ffffdf25;
630 : 00000ab8;
631 : 00002cf9;
632 : 00003b7d;
633 : 00003d24;
634 : 00004ca5;
635 : 00004253;
636 : 00001770;
637 : 0000082f;
638 : ffffcb76;
639 : ffff9611;
640 : ffff931e;
641 : ffffbb39;
642 : ffffd3b1;
643 : 000006fc;
644 : 00000023;
645 : 000047f7;
646 : 00005a59;
647 : 0000738a;
648 : 00007b90;
649 : 0000227b;
650 : 00000354;
651 : ffffeb67;
652 : ffffcb31;
653 : ffffb1d5;
654 : ffffe30d;
655 : ffffef9f;
656 : ffffe493;
657 : 00003520;
658 : 00006952;
659 : 00006ffb;
660 : 000051d7;
661 : 0000277d;
662 : 000021d5;
663 : 00000fcc;
664 : 00000ac4;
665 : 00001494;
666 : 00001630;
667 : 00002756;
668 : 00002438;
669 : 00000765;
670 : 00000137;
671 : 0000017f;
672 : 000020ec;
673 : 00002810;
674 : 000013ab;
675 : 00000903;
END;
