WIDTH=32;
DEPTH=676;
ADDRESS_RADIX=DEC;
DATA_RADIX=HEX;
CONTENT BEGIN
0 : ffffffce;
1 : fffff649;
2 : fffff60d;
3 : ffffe071;
4 : ffffe2e5;
5 : ffffd953;
6 : ffffe12c;
7 : ffffe08f;
8 : fffff382;
9 : ffffdef8;
10 : ffffe7d4;
11 : ffffd97c;
12 : ffffda16;
13 : ffffd606;
14 : ffffd117;
15 : fffffa24;
16 : ffff9a82;
17 : 0000148c;
18 : 00004aea;
19 : 000035d2;
20 : ffffeafd;
21 : 00001b4c;
22 : 00002e74;
23 : 00001eaa;
24 : 00004614;
25 : ffffde63;
26 : ffffd9bd;
27 : ffffe81e;
28 : ffffe1b5;
29 : ffffe8cc;
30 : ffffeabb;
31 : 00001ae0;
32 : 00001bce;
33 : 000019d3;
34 : 0000100a;
35 : 000006a2;
36 : 00001d7a;
37 : 00002442;
38 : 0000214a;
39 : 00000909;
40 : 00000df5;
41 : 00000714;
42 : 00001ff5;
43 : 00000912;
44 : 00000a47;
45 : fffffe13;
46 : 000008ad;
47 : 0000197f;
48 : 00000053;
49 : 00000c72;
50 : 00001465;
51 : 0000008b;
52 : 000011e3;
53 : 000007a0;
54 : 00001bb1;
55 : 0000089c;
56 : 00000d9b;
57 : 00002099;
58 : 00000869;
59 : 00000741;
60 : 00001501;
61 : 00002010;
62 : 000015b3;
63 : fffff9d4;
64 : 00000f60;
65 : fffffd5f;
66 : 00000305;
67 : 00001b4d;
68 : 0000004c;
69 : 0000054d;
70 : 000012f5;
71 : fffffc5c;
72 : fffff9bf;
73 : 000018f8;
74 : 000028b0;
75 : 000017a4;
76 : 00001342;
77 : 00000a2d;
78 : 00001a39;
79 : 0000049d;
80 : 000004b7;
81 : 000009a1;
82 : fffffb8a;
83 : 000022d2;
84 : 00000758;
85 : fffff773;
86 : 00003240;
87 : 00003e37;
88 : 00003387;
89 : 00001d8f;
90 : ffffe88d;
91 : 00001903;
92 : ffffe9b7;
93 : ffffdeb4;
94 : fffff1d7;
95 : 000003f5;
96 : 000014d8;
97 : 00000e41;
98 : 000003ee;
99 : 00001413;
100 : 000019ab;
101 : 00003606;
102 : 00002126;
103 : ffffe010;
104 : fffff5e6;
105 : fffff473;
106 : ffffee3c;
107 : fffff2cf;
108 : ffffee4f;
109 : 00000dde;
110 : 00000beb;
111 : 00000941;
112 : 0000105c;
113 : ffffed91;
114 : ffffe0fa;
115 : ffffb289;
116 : ffffded5;
117 : 000003f8;
118 : 000003c3;
119 : 00000903;
120 : fffffec3;
121 : fffffbae;
122 : 00000c9f;
123 : 0000113c;
124 : 000007f2;
125 : ffffe601;
126 : ffffcfe6;
127 : fffff6d4;
128 : ffffe2d8;
129 : 0000013e;
130 : 00002714;
131 : 000015ba;
132 : 0000154b;
133 : 00001c40;
134 : 00001344;
135 : 00002463;
136 : 00001f47;
137 : 00001a8d;
138 : 00000ea1;
139 : fffffcab;
140 : 00000187;
141 : fffff655;
142 : ffffc4ba;
143 : fffffdb2;
144 : 000012bc;
145 : 00001fe4;
146 : 00000c04;
147 : 00000f32;
148 : 00000ead;
149 : 000018f6;
150 : 00000eb3;
151 : 000013a9;
152 : 00001a07;
153 : 000019c1;
154 : 0000318d;
155 : ffffd108;
156 : ffffd156;
157 : ffffd318;
158 : ffffe95a;
159 : fffff5bf;
160 : 000004b2;
161 : 000000b6;
162 : ffffff7c;
163 : 0000085b;
164 : 00000307;
165 : 000021c9;
166 : 0000234d;
167 : ffffed85;
168 : ffffb4fd;
169 : fffff541;
170 : fffff3ae;
171 : fffff561;
172 : fffff51f;
173 : 000028ea;
174 : fffffe54;
175 : 0000115a;
176 : 00000106;
177 : 00000a28;
178 : ffffed1e;
179 : 000011bf;
180 : 00004274;
181 : ffffd7f2;
182 : 000000fa;
183 : ffffea84;
184 : 000018ca;
185 : ffffe5aa;
186 : fffff80a;
187 : 00001e14;
188 : fffffb4c;
189 : 000002ad;
190 : 00001699;
191 : 000001f3;
192 : 00001802;
193 : fffff456;
194 : 000015d3;
195 : ffffe0a9;
196 : fffff419;
197 : ffffd29f;
198 : 00000b9a;
199 : ffffe375;
200 : ffffe2a5;
201 : fffffb86;
202 : 00000d22;
203 : fffff40f;
204 : 0000044b;
205 : 0000054b;
206 : fffffbf8;
207 : 00000c4b;
208 : ffffb4b3;
209 : ffffe00a;
210 : 00000095;
211 : 00001507;
212 : fffff53d;
213 : ffffed6f;
214 : 0000069f;
215 : 00001b20;
216 : 000014b7;
217 : 0000175b;
218 : 000006f3;
219 : fffffbdc;
220 : 0000020b;
221 : ffffbffc;
222 : ffff8421;
223 : 00004ad6;
224 : 00001f9a;
225 : 00002c9a;
226 : 00003bf8;
227 : 00002fb9;
228 : 00002e6e;
229 : fffff848;
230 : 00000e2d;
231 : 00000173;
232 : 000005b3;
233 : 00002a3c;
234 : ffffd7b6;
235 : ffffdb26;
236 : 00004866;
237 : 00002218;
238 : 00001fe6;
239 : 00003213;
240 : 00002803;
241 : 000016b6;
242 : fffffcba;
243 : ffffff25;
244 : fffff894;
245 : 00000116;
246 : 00001586;
247 : 000003bf;
248 : ffffab93;
249 : 00001bd7;
250 : 00000d41;
251 : 000004fb;
252 : fffff016;
253 : 00001674;
254 : fffffcc3;
255 : 00000660;
256 : fffff211;
257 : fffff248;
258 : ffffefa2;
259 : 0000061e;
260 : fffff8f8;
261 : 00002d17;
262 : ffffaf32;
263 : ffffbb40;
264 : ffffd9ab;
265 : 00001249;
266 : fffffdc1;
267 : fffffe12;
268 : 000005a7;
269 : fffff493;
270 : ffffdeae;
271 : ffffd97f;
272 : ffffffca;
273 : fffff11a;
274 : ffffb90e;
275 : ffffb07a;
276 : ffffccb2;
277 : ffffe906;
278 : 00001c9f;
279 : 00001701;
280 : 000009d4;
281 : 000016d7;
282 : 000003bd;
283 : fffff2a1;
284 : fffff74d;
285 : 00001ece;
286 : fffff863;
287 : ffff7c50;
288 : 00002a24;
289 : 0000203d;
290 : 00003489;
291 : 00002914;
292 : 000003fd;
293 : 00001b3a;
294 : 00000f7b;
295 : 00000573;
296 : 00000437;
297 : 00000b5f;
298 : 00000d16;
299 : fffffe8b;
300 : ffffb47f;
301 : 00003ac2;
302 : 00003e77;
303 : 00003193;
304 : 00002654;
305 : 0000217c;
306 : 00001324;
307 : 000008e7;
308 : ffffff5b;
309 : 00000022;
310 : 000018e8;
311 : ffffd4b0;
312 : fffffaa3;
313 : ffffeb88;
314 : 00003e53;
315 : 00000dc7;
316 : 00000194;
317 : ffffe499;
318 : fffffd9f;
319 : fffff800;
320 : ffffec11;
321 : fffff113;
322 : 00000027;
323 : 00001906;
324 : ffffd31c;
325 : fffffd00;
326 : fffff88b;
327 : ffffac75;
328 : ffffab19;
329 : ffff7a6d;
330 : ffffbe7e;
331 : ffffc665;
332 : ffffea48;
333 : 00000429;
334 : ffffe645;
335 : 00000d15;
336 : fffff8e8;
337 : ffffd3f2;
338 : ffffcdda;
339 : ffffca2f;
340 : ffffbe95;
341 : ffffc0ba;
342 : ffffaa54;
343 : ffffcfd7;
344 : ffffe421;
345 : ffffd740;
346 : ffffd7a6;
347 : ffffc903;
348 : ffffee17;
349 : ffffc21a;
350 : ffffb8a3;
351 : ffffb9c7;
352 : ffffcedc;
353 : 0000020d;
354 : ffffffb5;
355 : ffffd8c3;
356 : fffffdd7;
357 : ffffe0ce;
358 : fffffea8;
359 : ffffdd5a;
360 : fffffd4c;
361 : ffffc707;
362 : ffffdf66;
363 : ffffb94a;
364 : ffffc4fa;
365 : ffffeeba;
366 : ffffebce;
367 : fffffec9;
368 : ffffe4a7;
369 : ffffed0a;
370 : fffff7e2;
371 : fffff2fa;
372 : 00000aef;
373 : 00000fba;
374 : 00000e0a;
375 : 00001c61;
376 : ffffd47f;
377 : fffffa38;
378 : fffff60d;
379 : 0000023a;
380 : 0000003c;
381 : 00001468;
382 : fffff720;
383 : ffffdb9c;
384 : fffff903;
385 : fffff3bb;
386 : fffff98b;
387 : 000022f0;
388 : 00001bd5;
389 : ffffc679;
390 : ffffd228;
391 : fffff4c0;
392 : 000004ad;
393 : 00000065;
394 : 00000167;
395 : fffffead;
396 : fffff4bc;
397 : fffff248;
398 : fffffb79;
399 : 0000167a;
400 : 00003aae;
401 : 00000c74;
402 : ffffd1e2;
403 : ffffe01c;
404 : 0000098b;
405 : 00000bec;
406 : 00001b12;
407 : 0000093d;
408 : 00001f7e;
409 : 00002325;
410 : ffffee8d;
411 : ffffe79d;
412 : ffffe9a7;
413 : fffff8b0;
414 : ffffc88f;
415 : ffffcd1f;
416 : ffffe6ac;
417 : fffffd02;
418 : fffff742;
419 : fffffc99;
420 : 00001244;
421 : 00002017;
422 : 00001110;
423 : ffffe4c1;
424 : ffffd376;
425 : ffffa642;
426 : ffffb668;
427 : ffffdafa;
428 : ffffb376;
429 : ffffcc79;
430 : 000003a2;
431 : fffffb09;
432 : fffffcc0;
433 : 000018da;
434 : 00002647;
435 : 000005f3;
436 : 000001c2;
437 : ffffe587;
438 : ffffe40b;
439 : fffff21a;
440 : 000008a3;
441 : ffffb22a;
442 : ffffbab6;
443 : 00000ad8;
444 : 0000071c;
445 : 00000c0a;
446 : 00001632;
447 : 00001b06;
448 : fffff861;
449 : 00000429;
450 : 00000591;
451 : 00001938;
452 : 000010fd;
453 : 000036c9;
454 : ffffaba2;
455 : ffffdd2c;
456 : 000002a3;
457 : 00000d35;
458 : 000012d2;
459 : 00001112;
460 : 0000162b;
461 : fffffe10;
462 : 00000841;
463 : 00001a3e;
464 : 00001c7a;
465 : 000015cb;
466 : ffffdaab;
467 : ffffca73;
468 : ffffe076;
469 : 00000a8d;
470 : 00001536;
471 : 00000596;
472 : fffffb43;
473 : 00000949;
474 : 00000085;
475 : ffffffbe;
476 : ffffe24a;
477 : fffffe49;
478 : ffffe961;
479 : ffffc4b1;
480 : ffffc6fc;
481 : ffffdb08;
482 : fffffa74;
483 : fffff694;
484 : fffffb8e;
485 : fffffeda;
486 : fffff6eb;
487 : ffffe92e;
488 : ffffee2a;
489 : 00000597;
490 : ffffcdc5;
491 : ffffd56b;
492 : ffffbbe7;
493 : ffffc7fc;
494 : ffffc855;
495 : ffffa915;
496 : ffffe554;
497 : ffffc32d;
498 : ffffe9d3;
499 : ffffdb7e;
500 : ffffedc1;
501 : fffffa7e;
502 : ffffecfa;
503 : ffffdffa;
504 : ffffe133;
505 : ffffc76a;
506 : ffffbe5b;
507 : ffffb205;
508 : ffffaf1b;
509 : ffffb421;
510 : ffffbd5b;
511 : ffffc6f1;
512 : ffffd693;
513 : ffffe0c5;
514 : ffffeac1;
515 : ffffe713;
516 : ffffbd37;
517 : ffffe076;
518 : ffffd0bf;
519 : ffffa5dc;
520 : ffffa6ad;
521 : ffffb0ad;
522 : ffffd66d;
523 : fffff41a;
524 : ffffef63;
525 : 00001513;
526 : 0000043c;
527 : fffff818;
528 : 000006ce;
529 : fffff37e;
530 : 00000703;
531 : ffffd8b9;
532 : ffffd05b;
533 : ffffb221;
534 : ffffd102;
535 : ffffe680;
536 : fffff644;
537 : fffffb56;
538 : 00001274;
539 : 00001079;
540 : 000006fd;
541 : 00000954;
542 : 0000111f;
543 : 00000dc7;
544 : 0000012f;
545 : ffffcf04;
546 : ffffa9a8;
547 : ffffcebb;
548 : 000002f4;
549 : ffffefdb;
550 : 000007f1;
551 : fffffaeb;
552 : 000007cf;
553 : fffff783;
554 : fffffdb0;
555 : fffffe88;
556 : 000009c1;
557 : ffffffda;
558 : ffffe950;
559 : ffffac90;
560 : ffffcfbf;
561 : ffffdd09;
562 : ffffed91;
563 : fffff7a6;
564 : 00000676;
565 : 00001e61;
566 : 0000137a;
567 : ffffea6d;
568 : 00002135;
569 : 00000016;
570 : ffffe14d;
571 : fffffd7f;
572 : ffffbf3e;
573 : ffffc66b;
574 : ffffdfe1;
575 : ffffe47f;
576 : ffffff22;
577 : 00000bbb;
578 : fffff002;
579 : 000009e5;
580 : fffff17b;
581 : 00000edf;
582 : ffffecd6;
583 : ffffc1a2;
584 : ffffc089;
585 : ffffb2b3;
586 : ffffb6ed;
587 : 00000fd1;
588 : 0000052f;
589 : 00002d15;
590 : fffffdae;
591 : fffffe99;
592 : ffffe72c;
593 : fffff87c;
594 : 00000b94;
595 : 00000067;
596 : ffffcb2b;
597 : ffffaabf;
598 : ffffae97;
599 : ffffe13d;
600 : 00000a41;
601 : fffffbc7;
602 : 0000043a;
603 : fffff894;
604 : ffffee79;
605 : 00000ab5;
606 : 00000b27;
607 : 00001de0;
608 : 00001162;
609 : ffffe982;
610 : ffffc559;
611 : ffffb71f;
612 : ffffe6a0;
613 : ffffbd7b;
614 : ffffcf96;
615 : ffffca1d;
616 : ffffafb7;
617 : ffffc88a;
618 : 00000820;
619 : 000023e7;
620 : fffffb9d;
621 : 000004ca;
622 : ffffd308;
623 : ffffbbb5;
624 : ffffbdf3;
625 : ffffba1f;
626 : ffffae27;
627 : ffffbbc1;
628 : ffffc391;
629 : ffffabe8;
630 : ffffed0e;
631 : 000008a7;
632 : fffff7c8;
633 : ffffd32b;
634 : ffffcd1d;
635 : ffffc719;
636 : ffffa039;
637 : ffffaef6;
638 : ffffba24;
639 : ffff95b5;
640 : ffffb621;
641 : ffffcd69;
642 : fffff9f2;
643 : fffff120;
644 : fffff89b;
645 : fffff0e7;
646 : ffffe91f;
647 : ffffc9de;
648 : ffffc09e;
649 : ffff9b8e;
650 : ffffb221;
651 : ffff905a;
652 : ffffa4b9;
653 : ffffe504;
654 : fffffc57;
655 : 00001469;
656 : 0000178d;
657 : 00000fae;
658 : fffff4bf;
659 : ffffbe10;
660 : ffffa0fd;
661 : ffffb0c3;
662 : ffffa247;
663 : ffffb2cd;
664 : ffffa758;
665 : ffff9df6;
666 : ffffc8eb;
667 : ffffc248;
668 : ffffb97a;
669 : ffffbc72;
670 : ffff8d21;
671 : ffffa47d;
672 : ffffa675;
673 : ffffb328;
674 : ffffb0d0;
675 : ffffa5db;
END;
