WIDTH=32;
DEPTH=676;
ADDRESS_RADIX=DEC;
DATA_RADIX=HEX;
CONTENT BEGIN
0 : ffffff5c;
1 : 000003e7;
2 : ffffebd3;
3 : ffffd4d1;
4 : ffffcfd8;
5 : ffffd217;
6 : ffffda63;
7 : ffffe03b;
8 : ffffd81e;
9 : ffffba0a;
10 : ffffd995;
11 : fffffaaa;
12 : ffffdbb5;
13 : fffff53f;
14 : ffffcdbe;
15 : fffff574;
16 : fffff830;
17 : 000008cf;
18 : ffffcb27;
19 : ffffcfeb;
20 : ffffe64e;
21 : ffffe940;
22 : 00003338;
23 : 00000f93;
24 : ffffec15;
25 : ffffc7e6;
26 : 0000052f;
27 : fffff8b3;
28 : ffffe2b9;
29 : ffffd937;
30 : ffffed72;
31 : ffffee2e;
32 : ffffeb1a;
33 : 00000c57;
34 : 00001c74;
35 : fffffb12;
36 : 00002d43;
37 : 000037b7;
38 : 00001105;
39 : ffffbda8;
40 : ffffe813;
41 : ffffecd3;
42 : ffffe992;
43 : ffffff10;
44 : ffffe3ce;
45 : ffffe4e9;
46 : 00001d0a;
47 : 00002f23;
48 : 00004883;
49 : 00002bd7;
50 : ffffff42;
51 : 000001ee;
52 : ffff8e43;
53 : ffffe870;
54 : ffffea36;
55 : fffff404;
56 : ffffebaf;
57 : fffffa07;
58 : ffffe80b;
59 : 000003b2;
60 : 00002fb3;
61 : 0000278f;
62 : 00003ce6;
63 : 00003018;
64 : 0000353a;
65 : ffffcd08;
66 : fffff06b;
67 : fffff961;
68 : 000002c2;
69 : 00000cb2;
70 : ffffed5a;
71 : ffffe417;
72 : fffffbfa;
73 : 000012c6;
74 : ffffe732;
75 : fffff05e;
76 : 00002462;
77 : 000047ac;
78 : fffffa64;
79 : ffffe854;
80 : 00002400;
81 : 00001c93;
82 : 00000285;
83 : fffff214;
84 : fffffc85;
85 : fffffec7;
86 : ffffe93c;
87 : ffffa007;
88 : ffffc6ab;
89 : ffffbe6d;
90 : ffffef7b;
91 : ffffea40;
92 : ffffe47d;
93 : 000015fb;
94 : 0000260a;
95 : 00000751;
96 : fffff953;
97 : fffffaab;
98 : ffffda7d;
99 : ffffd175;
100 : ffffbdad;
101 : ffffb34a;
102 : ffffb17d;
103 : ffffe60f;
104 : ffffd199;
105 : fffff0a1;
106 : fffff281;
107 : 000003fc;
108 : 00000226;
109 : ffffeef0;
110 : ffffe910;
111 : ffffd4f1;
112 : ffffd950;
113 : ffffdf1b;
114 : ffffeaa1;
115 : ffffaef5;
116 : ffffe144;
117 : 000002b0;
118 : fffffac6;
119 : fffffeed;
120 : fffff71e;
121 : ffffcf20;
122 : ffffd2f7;
123 : ffffdfb4;
124 : ffffdca7;
125 : ffffe981;
126 : 00000602;
127 : ffffe7c1;
128 : ffffdf77;
129 : ffffd0d0;
130 : fffff05a;
131 : ffffe0b9;
132 : ffffeb1a;
133 : fffff350;
134 : fffff85c;
135 : fffffdd9;
136 : 000001f0;
137 : fffff93a;
138 : fffff8de;
139 : fffffde5;
140 : 000008d2;
141 : 000025ef;
142 : ffffd897;
143 : fffffd21;
144 : ffffea7e;
145 : ffffe347;
146 : ffffffa9;
147 : 00001539;
148 : 000019c6;
149 : 000019f9;
150 : 000000ca;
151 : 00000790;
152 : 00000ced;
153 : 00000fd4;
154 : fffffa95;
155 : 00000a50;
156 : 000006da;
157 : ffffcc72;
158 : ffffe701;
159 : 000024e1;
160 : 000010ef;
161 : 0000184d;
162 : 0000304a;
163 : 000031d4;
164 : 00002787;
165 : 00002c79;
166 : 000010f0;
167 : 00001c1a;
168 : 00003694;
169 : 0000084c;
170 : 00002692;
171 : 00001fd9;
172 : 00000e8b;
173 : 00001726;
174 : 00000198;
175 : ffffff63;
176 : ffffebaf;
177 : 0000156b;
178 : 00002a8c;
179 : 00001736;
180 : ffffb2f4;
181 : ffffd556;
182 : fffff09f;
183 : ffffe3fd;
184 : fffff97b;
185 : ffffdb07;
186 : fffffcef;
187 : fffffd9e;
188 : ffffe14e;
189 : fffffe01;
190 : 00000d7a;
191 : 00000c3e;
192 : fffff88e;
193 : 000001c6;
194 : 00000279;
195 : 00001ebc;
196 : ffffed74;
197 : 000000d4;
198 : ffffefa1;
199 : 0000083a;
200 : fffff6f0;
201 : ffffe994;
202 : fffff98d;
203 : 00000483;
204 : 00001402;
205 : fffffffd;
206 : fffff926;
207 : 00001a2d;
208 : fffff816;
209 : ffffe048;
210 : 00001f37;
211 : 00002715;
212 : 000024fd;
213 : 000026c5;
214 : ffffff21;
215 : ffffe077;
216 : ffffe7ce;
217 : ffffeee5;
218 : ffffddb1;
219 : ffffe2a3;
220 : 00000ff1;
221 : ffffedf0;
222 : 00000093;
223 : 00003e4d;
224 : 000029cd;
225 : 00002c05;
226 : 00002f49;
227 : 000015c8;
228 : ffffe877;
229 : ffffea15;
230 : ffffb2cc;
231 : ffff8b7b;
232 : ffffbcfe;
233 : 00000fa4;
234 : fffff2d3;
235 : ffffccc4;
236 : 00003c0c;
237 : 000021d1;
238 : 0000198e;
239 : 00000933;
240 : 00001358;
241 : ffffe10f;
242 : ffffd555;
243 : ffffc035;
244 : ffff9dd6;
245 : ffff9f9a;
246 : fffffb5f;
247 : 00000b1b;
248 : 00000ebe;
249 : fffffd2d;
250 : 0000097c;
251 : 00001194;
252 : 00000776;
253 : 0000124f;
254 : 00000352;
255 : fffff74e;
256 : ffffdacb;
257 : ffffe1a7;
258 : ffffc8fc;
259 : ffffdd24;
260 : fffffaa2;
261 : fffffcff;
262 : 000009a8;
263 : fffff57c;
264 : fffff53a;
265 : 0000119d;
266 : 00000e61;
267 : 00000876;
268 : 000007b5;
269 : 00000057;
270 : fffffd2c;
271 : fffffa89;
272 : 0000067d;
273 : 0000307f;
274 : 00000b42;
275 : fffff187;
276 : 00000333;
277 : ffffd984;
278 : fffffa60;
279 : fffff079;
280 : fffff378;
281 : 00000a8a;
282 : ffffff8d;
283 : 00000b8a;
284 : 000011a0;
285 : 0000071e;
286 : ffffd30c;
287 : 00001f37;
288 : 000001de;
289 : ffffed7c;
290 : ffffccdf;
291 : ffffee74;
292 : 00000578;
293 : ffffde08;
294 : fffff565;
295 : 0000039d;
296 : fffffcb8;
297 : 00001242;
298 : 0000212d;
299 : ffffed63;
300 : 00001c1d;
301 : ffffdc63;
302 : ffffd861;
303 : ffffd248;
304 : ffffce48;
305 : ffffe352;
306 : ffffe800;
307 : ffffe4ee;
308 : fffff5c7;
309 : fffffb60;
310 : 00000c06;
311 : 00001650;
312 : 000000fe;
313 : 00001487;
314 : 00000aab;
315 : ffffed29;
316 : ffffd0dd;
317 : ffffbeca;
318 : ffffd1c8;
319 : ffffdd1c;
320 : ffffe291;
321 : fffff3db;
322 : 00001d38;
323 : fffff7af;
324 : 0000240d;
325 : fffffc8c;
326 : 00001b1e;
327 : ffffaaaf;
328 : ffff907d;
329 : ffffce38;
330 : ffffdf51;
331 : fffff8b5;
332 : 00000c10;
333 : 0000075a;
334 : 00003ff2;
335 : 00000571;
336 : 00002537;
337 : 00004f49;
338 : fffffdd2;
339 : 0000002d;
340 : fffff0f4;
341 : 000000ec;
342 : fffff246;
343 : fffff2c5;
344 : fffff65b;
345 : 00002077;
346 : ffffebb9;
347 : fffff687;
348 : ffffdd9c;
349 : fffff5c4;
350 : fffffcca;
351 : 00000bc4;
352 : 000004f8;
353 : ffffc996;
354 : 00000b90;
355 : 00001394;
356 : fffff568;
357 : 0000022d;
358 : ffffffb3;
359 : 0000082a;
360 : fffffa26;
361 : 00003c5b;
362 : ffffe652;
363 : 000004fa;
364 : ffffeff9;
365 : 00000296;
366 : ffffebc7;
367 : fffff393;
368 : fffff221;
369 : fffffe6f;
370 : ffffdbdb;
371 : ffffce29;
372 : ffffb078;
373 : ffff9b12;
374 : ffffb7d6;
375 : ffffce89;
376 : ffffeef5;
377 : ffffbd31;
378 : ffffed15;
379 : fffffe67;
380 : fffff6ee;
381 : fffff324;
382 : fffff885;
383 : ffffca3d;
384 : ffffac28;
385 : ffff7368;
386 : ffff52d0;
387 : ffff33a2;
388 : ffff952a;
389 : 00001a26;
390 : ffffb576;
391 : fffff261;
392 : fffff6a9;
393 : 0000115a;
394 : 00000bc6;
395 : 0000090b;
396 : ffffd193;
397 : ffff8b60;
398 : ffffb50a;
399 : ffff790d;
400 : ffff7bcf;
401 : ffffa1ed;
402 : 00002745;
403 : fffffa8c;
404 : ffffe783;
405 : 000004ee;
406 : fffff423;
407 : 00000089;
408 : ffffe9f9;
409 : ffffe413;
410 : ffffdbe2;
411 : ffffd4fb;
412 : ffffdca8;
413 : ffffd4db;
414 : ffffeb63;
415 : 00002667;
416 : fffff984;
417 : ffffe4f1;
418 : 00000014;
419 : 000004d8;
420 : fffff8e1;
421 : ffffe0f3;
422 : ffffebfe;
423 : fffff774;
424 : 00000cc2;
425 : fffff673;
426 : 0000115e;
427 : 000012be;
428 : 00000a2d;
429 : ffffdd3c;
430 : ffffe98b;
431 : ffffd2b9;
432 : fffff5d4;
433 : fffff1fd;
434 : ffffedd7;
435 : fffff294;
436 : fffffc02;
437 : 00000fe2;
438 : 00001998;
439 : 000023fa;
440 : 000021d3;
441 : fffffb1f;
442 : ffffe55b;
443 : fffffc27;
444 : ffffd352;
445 : ffffd53d;
446 : ffffe16a;
447 : ffffe312;
448 : 00000841;
449 : fffffd8e;
450 : 00001f0f;
451 : 0000277a;
452 : 0000201f;
453 : ffffd7aa;
454 : fffff37b;
455 : ffffd94a;
456 : fffff4d4;
457 : ffffeed4;
458 : fffffbc4;
459 : ffffe32b;
460 : ffffd847;
461 : fffff7e2;
462 : fffffe60;
463 : fffffc5b;
464 : 00000e6b;
465 : 00000b89;
466 : fffffa57;
467 : fffff96e;
468 : fffff170;
469 : ffffea9e;
470 : fffff182;
471 : 00000490;
472 : 000007c3;
473 : ffffe1c2;
474 : ffffe4ba;
475 : ffffe743;
476 : ffffda2a;
477 : ffffdeeb;
478 : 00000050;
479 : 0000038c;
480 : fffffe00;
481 : 00001993;
482 : ffffe50b;
483 : ffffeb42;
484 : 00001652;
485 : fffff13a;
486 : 0000050c;
487 : fffff318;
488 : fffff93f;
489 : ffffbf4d;
490 : ffffd080;
491 : 000017cf;
492 : 00001886;
493 : 0000118e;
494 : 000013b4;
495 : ffffd6a3;
496 : ffffde18;
497 : 00000280;
498 : 00002d00;
499 : 000021bd;
500 : 00001017;
501 : 0000018c;
502 : ffffec3d;
503 : ffffeea2;
504 : 00001151;
505 : 00000d65;
506 : 0000064d;
507 : 0000085c;
508 : 00000e50;
509 : 00000678;
510 : 0000124d;
511 : 00000445;
512 : fffffd61;
513 : 000005c4;
514 : 00000407;
515 : 00002b93;
516 : 00002e17;
517 : ffffff37;
518 : ffffe449;
519 : 0000025c;
520 : 0000111f;
521 : 000004b6;
522 : fffff4d1;
523 : fffff24a;
524 : 00001472;
525 : fffffbe0;
526 : 000004f5;
527 : 00000c23;
528 : 000007f0;
529 : 000014da;
530 : 000001ee;
531 : fffffee3;
532 : 00001d02;
533 : fffffc1b;
534 : ffffdc31;
535 : ffffec43;
536 : fffff5cd;
537 : fffffd2c;
538 : fffffea8;
539 : fffffc30;
540 : 00000b8d;
541 : 00000c9d;
542 : 00000fd5;
543 : 00001242;
544 : 00000866;
545 : 0000181a;
546 : fffff119;
547 : ffffcae9;
548 : ffffc88c;
549 : ffffd112;
550 : ffffd7aa;
551 : fffff520;
552 : ffffe11d;
553 : 00002828;
554 : 000044ef;
555 : 00003c32;
556 : 00001bd1;
557 : 00000fe1;
558 : fffffdff;
559 : 00000266;
560 : fffff90b;
561 : ffffc4a5;
562 : ffffbd04;
563 : ffffd488;
564 : 000001dc;
565 : 00000d7e;
566 : 00002d76;
567 : 00005683;
568 : 00003f8c;
569 : 00004ee3;
570 : 00001b93;
571 : 00002f4a;
572 : 00000dda;
573 : ffffc359;
574 : ffffaf08;
575 : ffffc58f;
576 : ffffd7f8;
577 : 000009a6;
578 : 000026a0;
579 : 00003608;
580 : 00004906;
581 : 00004310;
582 : 0000420d;
583 : 00004199;
584 : 00001e97;
585 : 00000663;
586 : fffff93e;
587 : 0000043e;
588 : fffff5b9;
589 : ffffdee9;
590 : fffffa91;
591 : 00002c6b;
592 : 00003d0a;
593 : 00002b7c;
594 : 00000e52;
595 : 00002c9e;
596 : 00003293;
597 : 000022a8;
598 : 000001c2;
599 : 00002475;
600 : 00006be1;
601 : 000049e0;
602 : 00000de0;
603 : 000035a0;
604 : 00002cec;
605 : 00001b91;
606 : 00000711;
607 : fffff150;
608 : ffffeba5;
609 : ffffe027;
610 : fffffbb7;
611 : 000018ff;
612 : 00003830;
613 : 000038e3;
614 : 00004f04;
615 : 000061a4;
616 : 0000447f;
617 : 00002e27;
618 : 00001e04;
619 : ffffdfdf;
620 : ffffeaa3;
621 : ffffd437;
622 : ffffcf2e;
623 : 0000190b;
624 : 00000f2b;
625 : 00002965;
626 : 00004bd0;
627 : 00004512;
628 : 0000381e;
629 : 0000345d;
630 : 00002ca1;
631 : 00000357;
632 : 000013e7;
633 : ffffde48;
634 : ffffd29a;
635 : ffffd1b8;
636 : 00001a35;
637 : 00000cb0;
638 : 00002451;
639 : 0000471c;
640 : 000031b9;
641 : 00004112;
642 : 00003636;
643 : 00001e2c;
644 : 00000caa;
645 : ffffea2e;
646 : fffff9b3;
647 : ffffa48a;
648 : ffffb2e8;
649 : fffffebd;
650 : 00000a7b;
651 : 00000479;
652 : 0000262d;
653 : 00002c05;
654 : 00003853;
655 : 00004ab3;
656 : 000021a8;
657 : ffffee48;
658 : ffffd7a6;
659 : ffffb8d9;
660 : ffffd259;
661 : 0000015d;
662 : 00000880;
663 : 000013eb;
664 : 0000117a;
665 : 00000f86;
666 : fffffe02;
667 : fffffaac;
668 : 00001653;
669 : 00001297;
670 : 00000211;
671 : 00000ddb;
672 : 00000129;
673 : fffffd7d;
674 : fffffd2d;
675 : 000013cd;
END;
