WIDTH=32;
DEPTH=676;
ADDRESS_RADIX=DEC;
DATA_RADIX=HEX;
CONTENT BEGIN
0 : 0000010f;
1 : 00000d3e;
2 : 00001fe4;
3 : 000022a5;
4 : 000021fd;
5 : 000010d6;
6 : ffffeecb;
7 : 000025a4;
8 : 000027c3;
9 : 00004208;
10 : 00005735;
11 : 000021b6;
12 : 0000277e;
13 : ffffe64a;
14 : 000003c9;
15 : 00001358;
16 : 000013f2;
17 : ffffe4a8;
18 : ffffb677;
19 : ffffce69;
20 : ffffd6cd;
21 : ffffe2ba;
22 : ffffdada;
23 : 0000065a;
24 : 00000900;
25 : 0000217a;
26 : ffffc98e;
27 : 00000b3d;
28 : 00000426;
29 : ffffe711;
30 : ffffd23b;
31 : ffff9bf1;
32 : ffffd3c1;
33 : ffffef60;
34 : 000012e0;
35 : 00000b11;
36 : fffffe17;
37 : ffffe7eb;
38 : ffffef21;
39 : ffffde8d;
40 : fffffc8e;
41 : fffff0e0;
42 : ffffe4c6;
43 : ffffc029;
44 : ffffc209;
45 : ffffe098;
46 : 00000a4e;
47 : 0000147d;
48 : 00002090;
49 : 00002105;
50 : 0000277d;
51 : 000006e8;
52 : ffffd685;
53 : ffffec3c;
54 : ffffccec;
55 : ffffe6c6;
56 : ffffcb40;
57 : ffffc314;
58 : ffffbe15;
59 : fffff189;
60 : fffff3a0;
61 : 00001548;
62 : 00001a9d;
63 : fffff362;
64 : ffff9403;
65 : ffffae2e;
66 : 000007a3;
67 : ffffd451;
68 : ffffd59e;
69 : ffffb325;
70 : ffffb454;
71 : ffffaec0;
72 : ffffdfd2;
73 : 0000105f;
74 : 0000124a;
75 : fffffe5f;
76 : ffffc07c;
77 : ffff942f;
78 : ffffa7d2;
79 : fffffcf5;
80 : fffffa24;
81 : fffff429;
82 : ffffdef8;
83 : ffff9998;
84 : ffffca27;
85 : 0000159f;
86 : fffffa23;
87 : ffffe9fd;
88 : ffffe36c;
89 : ffffe32c;
90 : 00000ab0;
91 : ffffa61e;
92 : 00000650;
93 : fffffd02;
94 : ffffec00;
95 : ffffd1f8;
96 : ffffd00a;
97 : ffffe819;
98 : ffffffa3;
99 : 00001107;
100 : 00002191;
101 : 00001add;
102 : fffff617;
103 : ffffc6cf;
104 : ffffaea7;
105 : 000012a5;
106 : 00001003;
107 : 0000148c;
108 : 00000b32;
109 : ffffeeaa;
110 : ffffc252;
111 : fffff7ef;
112 : 000025a2;
113 : 0000249d;
114 : 00000a79;
115 : 000016e7;
116 : 0000079a;
117 : ffffc999;
118 : fffffffb;
119 : 0000180a;
120 : 0000233a;
121 : 0000176b;
122 : 00001021;
123 : 00000bb6;
124 : 0000194a;
125 : 00003004;
126 : 00001b82;
127 : fffff6ac;
128 : 00000b94;
129 : fffffb71;
130 : ffffc3d3;
131 : 00000445;
132 : 00001fad;
133 : 00000afd;
134 : 00000c49;
135 : 00002f85;
136 : 00002e47;
137 : 000035ec;
138 : 0000236a;
139 : 000007fb;
140 : 000002f4;
141 : fffff67b;
142 : fffff356;
143 : ffffe647;
144 : ffffbfd4;
145 : ffffca1e;
146 : fffffdbc;
147 : 00000c80;
148 : 00001237;
149 : fffffe56;
150 : 0000009d;
151 : fffff488;
152 : fffff7ae;
153 : fffff9c2;
154 : ffffab4c;
155 : ffff8c78;
156 : 00000221;
157 : fffff06f;
158 : ffffac8b;
159 : ffff8e14;
160 : ffff88bf;
161 : ffffcac7;
162 : fffff244;
163 : 00001c52;
164 : 00002d2d;
165 : 00000d5d;
166 : ffffe3de;
167 : ffffb1b8;
168 : ffffed83;
169 : fffffd30;
170 : fffffbf3;
171 : 00002d34;
172 : 00002846;
173 : fffffe7b;
174 : fffffcfe;
175 : 00003649;
176 : 00000413;
177 : fffff97d;
178 : 00001ae7;
179 : 000011b4;
180 : 00003e79;
181 : 000028b0;
182 : fffffdd9;
183 : 0000234e;
184 : 0000178c;
185 : fffffae3;
186 : 0000215e;
187 : fffffa14;
188 : fffff70c;
189 : fffff250;
190 : fffff4e5;
191 : 00001068;
192 : fffff6f6;
193 : 00001e81;
194 : 00000d97;
195 : 00000a79;
196 : 00001b67;
197 : 00002324;
198 : ffffec1a;
199 : 00001623;
200 : ffffe07b;
201 : ffffcb56;
202 : ffffc6a6;
203 : ffffd311;
204 : ffffde0d;
205 : fffffaf9;
206 : fffff483;
207 : fffff709;
208 : fffffdc1;
209 : fffff81b;
210 : 000037bc;
211 : 0000009b;
212 : ffffed61;
213 : fffffe07;
214 : ffffda78;
215 : ffffd3d1;
216 : ffffcc28;
217 : ffffbf06;
218 : fffff66d;
219 : fffff3e9;
220 : ffffdf5a;
221 : ffffdd72;
222 : ffffc7f1;
223 : 00001314;
224 : 000000bb;
225 : fffffe38;
226 : fffffbee;
227 : 0000062a;
228 : fffff2b4;
229 : ffffbfce;
230 : ffffb9fd;
231 : ffffe370;
232 : ffffdcc8;
233 : ffffe4a4;
234 : fffffaa9;
235 : ffffcf27;
236 : 00001faf;
237 : 000028f1;
238 : 0000146b;
239 : fffff5e2;
240 : 00000af4;
241 : fffffc84;
242 : ffffcd6d;
243 : ffffcc0a;
244 : ffffe616;
245 : 00000935;
246 : 0000164a;
247 : fffff60d;
248 : ffffb76b;
249 : 0000387d;
250 : 00002002;
251 : 000008ac;
252 : 00002cba;
253 : 00001a4a;
254 : fffff380;
255 : fffff569;
256 : fffff6ff;
257 : 00000171;
258 : 00001a1e;
259 : 00002927;
260 : 000005cc;
261 : ffffc900;
262 : 00002eca;
263 : 00002d75;
264 : 00001eb1;
265 : 00003130;
266 : 0000438f;
267 : 0000289c;
268 : 000009a0;
269 : 000012a5;
270 : 00000b05;
271 : 00001200;
272 : fffffd5e;
273 : fffffabf;
274 : fffffcb7;
275 : fffffd2b;
276 : 00002446;
277 : 000040a7;
278 : 000039dd;
279 : 00002913;
280 : 00001c9c;
281 : 00002cbd;
282 : 00001610;
283 : 0000060b;
284 : 00000e05;
285 : 000004cf;
286 : 0000090d;
287 : fffffbb6;
288 : ffffdaa5;
289 : 00002863;
290 : 00002617;
291 : 000019a7;
292 : 00001906;
293 : 00001881;
294 : 00002a82;
295 : 0000032c;
296 : ffffdb64;
297 : fffff4fd;
298 : fffffb76;
299 : fffffa81;
300 : fffff655;
301 : ffffbb2a;
302 : ffffcacd;
303 : 00002e23;
304 : 00000f25;
305 : 00000916;
306 : 000026af;
307 : 00000904;
308 : 0000016e;
309 : fffffcdb;
310 : fffff2e6;
311 : ffffcd9f;
312 : 00000262;
313 : fffff235;
314 : 000002a7;
315 : ffffa428;
316 : ffffe7dd;
317 : ffffebdf;
318 : ffffcd2e;
319 : ffffd5ad;
320 : ffffd828;
321 : ffffec60;
322 : 000015df;
323 : ffffddec;
324 : ffffa599;
325 : 00000978;
326 : fffff73c;
327 : ffffff67;
328 : ffffef13;
329 : ffffa53f;
330 : ffff82af;
331 : ffffb8d6;
332 : ffffb852;
333 : 000020ba;
334 : 00000cea;
335 : 000000a4;
336 : ffffddfc;
337 : fffffcdb;
338 : fffffe75;
339 : fffffa55;
340 : 00001f87;
341 : 00000e79;
342 : 00003291;
343 : 00003d83;
344 : 000041bc;
345 : 00001c21;
346 : 000057f4;
347 : 0000578f;
348 : 00001a2b;
349 : fffffdf5;
350 : 00001152;
351 : fffff64f;
352 : 00002827;
353 : 00001f78;
354 : 00002427;
355 : 00000bfd;
356 : 000017de;
357 : 00000b8a;
358 : 00000adf;
359 : 00001d45;
360 : 000012bf;
361 : ffffedab;
362 : 000002cc;
363 : 00000b1b;
364 : ffffe952;
365 : 00001638;
366 : 00001904;
367 : 00002378;
368 : 000013b7;
369 : 00000b31;
370 : 0000085b;
371 : ffffe4ac;
372 : ffffe8ff;
373 : ffffe9a7;
374 : ffffb155;
375 : ffffe438;
376 : 0000114e;
377 : ffffe3d5;
378 : fffff094;
379 : 00001750;
380 : 00002249;
381 : fffffe52;
382 : 00001238;
383 : 000017b9;
384 : ffffe703;
385 : fffff41f;
386 : ffffe14b;
387 : ffffb562;
388 : 00002485;
389 : 00001175;
390 : ffffdf45;
391 : fffffa89;
392 : 00001531;
393 : 00003031;
394 : 000007bc;
395 : fffff581;
396 : ffffea34;
397 : ffffe865;
398 : ffffd298;
399 : ffffae26;
400 : ffffbd64;
401 : 00000497;
402 : fffffb8e;
403 : ffffc976;
404 : fffffb26;
405 : 000021e3;
406 : 0000222b;
407 : ffffe79a;
408 : fffffa71;
409 : ffffd073;
410 : ffffb786;
411 : ffffb651;
412 : ffffd788;
413 : 000010e4;
414 : 000023ec;
415 : ffffdb28;
416 : ffffc4a1;
417 : 00001df8;
418 : 00000d22;
419 : 00001bcf;
420 : 000016a0;
421 : ffffdcb3;
422 : ffffdd62;
423 : 00000834;
424 : fffffe63;
425 : 00000371;
426 : 00000edf;
427 : 00001b13;
428 : ffffe140;
429 : ffffdb22;
430 : 00002ce6;
431 : 000032ec;
432 : 00001eea;
433 : 0000170b;
434 : 00001184;
435 : fffffd72;
436 : fffffa1f;
437 : fffff810;
438 : 000027a4;
439 : 00002797;
440 : 00002084;
441 : ffffdaed;
442 : ffffe1fe;
443 : 00001384;
444 : 000032bf;
445 : 00001e14;
446 : 00003751;
447 : 00000bf3;
448 : ffffc9e3;
449 : fffff0a5;
450 : 00001517;
451 : fffff329;
452 : ffffe6d0;
453 : 00001343;
454 : ffffde7a;
455 : ffffeff3;
456 : 00000186;
457 : fffffe01;
458 : 000026b2;
459 : 00002ed4;
460 : 00001c6d;
461 : 00000557;
462 : ffffd8a0;
463 : ffffcf17;
464 : ffffead7;
465 : fffffb7c;
466 : ffffe3cc;
467 : 0000037e;
468 : fffff797;
469 : ffffe85f;
470 : 000007eb;
471 : 00001912;
472 : 000020ec;
473 : 0000305d;
474 : 00000fe2;
475 : ffffff86;
476 : ffffe23e;
477 : ffffcc62;
478 : ffffcab5;
479 : ffffe132;
480 : fffff9a6;
481 : fffff7c0;
482 : ffffe10c;
483 : ffffd758;
484 : fffffc5d;
485 : fffff81d;
486 : 00001247;
487 : ffffeb22;
488 : ffffe74e;
489 : ffffdd53;
490 : 00000663;
491 : ffffce73;
492 : ffffdc49;
493 : ffffff1f;
494 : 000005fd;
495 : fffff808;
496 : ffffe4f0;
497 : ffffc761;
498 : ffffc942;
499 : ffffea43;
500 : ffffeb02;
501 : 00000bdb;
502 : fffff813;
503 : ffffecd7;
504 : fffff17a;
505 : 000001e1;
506 : 00000554;
507 : fffffc54;
508 : fffff794;
509 : 000008c2;
510 : 00001ce8;
511 : 00000c86;
512 : 00001230;
513 : 00001dd1;
514 : fffffe92;
515 : 00000c81;
516 : 00001201;
517 : 000020f0;
518 : 00002300;
519 : 00000996;
520 : fffff467;
521 : 000012c2;
522 : 00000dcc;
523 : 00000130;
524 : ffffe6c1;
525 : ffffe34e;
526 : ffffe953;
527 : fffff0dc;
528 : ffffee2e;
529 : fffffa09;
530 : 000003b4;
531 : 00001496;
532 : fffffef2;
533 : 000003bf;
534 : fffffa8f;
535 : ffffdad3;
536 : ffffba8c;
537 : ffffa989;
538 : ffffc74e;
539 : ffffd8fc;
540 : ffffddf9;
541 : fffff81b;
542 : ffffe6db;
543 : ffffef2f;
544 : fffff1d6;
545 : fffffe52;
546 : ffffff84;
547 : ffffc4c2;
548 : ffffcd7e;
549 : ffffe5ff;
550 : ffffbb71;
551 : ffffa892;
552 : ffffc224;
553 : ffffd210;
554 : 00001cd0;
555 : 00000dd8;
556 : 00001ccc;
557 : ffffede0;
558 : ffffb5c6;
559 : ffffef38;
560 : ffffc20b;
561 : ffffd536;
562 : ffffd009;
563 : ffffbc85;
564 : ffffd9e8;
565 : ffffe40e;
566 : 00002f9d;
567 : 000041aa;
568 : 00002bd3;
569 : 00002014;
570 : 0000181b;
571 : ffffe7bc;
572 : fffff27e;
573 : ffffb647;
574 : ffffcbe8;
575 : ffffbb64;
576 : ffffa4fa;
577 : ffffaa57;
578 : 0000098d;
579 : 0000519c;
580 : 00004f88;
581 : 00004518;
582 : 0000369b;
583 : 00001477;
584 : fffff7f2;
585 : 0000028e;
586 : ffffda4e;
587 : ffffbadd;
588 : ffff8c2e;
589 : ffff9d12;
590 : ffffc5a0;
591 : 00001afd;
592 : 00005a50;
593 : 00002d81;
594 : 00002384;
595 : 00000aec;
596 : fffff28b;
597 : ffffea07;
598 : fffff5eb;
599 : ffffe873;
600 : ffffb38f;
601 : ffffaea5;
602 : ffff5a4f;
603 : ffffafa8;
604 : 00002c53;
605 : 00002d7a;
606 : 00001868;
607 : 000012df;
608 : ffffe5d7;
609 : fffff8a8;
610 : ffffff7c;
611 : fffffddf;
612 : ffffdd90;
613 : ffff9b3d;
614 : ffffbe82;
615 : ffffaa5a;
616 : ffffc835;
617 : ffffe37a;
618 : ffffe809;
619 : 00000264;
620 : fffff630;
621 : ffffe403;
622 : fffffaab;
623 : ffffe5ae;
624 : fffff8ef;
625 : ffffd82b;
626 : ffffbe27;
627 : ffffd0d6;
628 : ffffc790;
629 : fffffa31;
630 : ffffe10c;
631 : fffff8fe;
632 : ffffe93e;
633 : 00000dee;
634 : 000003f4;
635 : 00001085;
636 : fffff583;
637 : ffffffff;
638 : ffffef72;
639 : ffffd6ff;
640 : ffff9935;
641 : ffffb929;
642 : 00000057;
643 : 00002098;
644 : 00001f43;
645 : 00001285;
646 : 00000710;
647 : ffffde58;
648 : ffffe960;
649 : fffff556;
650 : fffff8c6;
651 : fffff4f5;
652 : 0000029e;
653 : ffffe22d;
654 : fffff6cf;
655 : ffffdef8;
656 : fffff6cc;
657 : fffffde6;
658 : ffffea08;
659 : ffffe7a7;
660 : fffffb78;
661 : 000006f9;
662 : 000006df;
663 : 000005bb;
664 : fffff9c4;
665 : fffffd35;
666 : fffff99d;
667 : 0000056d;
668 : 00000938;
669 : fffffffb;
670 : fffffbb2;
671 : fffff464;
672 : fffffa8d;
673 : 00000541;
674 : 0000011e;
675 : 0000075e;
END;
