WIDTH=32;
DEPTH=676;
ADDRESS_RADIX=DEC;
DATA_RADIX=HEX;
CONTENT BEGIN
0 : fffffec1;
1 : 000016cc;
2 : fffff39f;
3 : 000002e6;
4 : fffffbb5;
5 : 0000051e;
6 : ffffd156;
7 : ffffbdb9;
8 : ffffd682;
9 : ffffe65d;
10 : ffffba3e;
11 : ffffdd54;
12 : 000006e0;
13 : 000007c5;
14 : 000026b9;
15 : 00001245;
16 : 000019d7;
17 : 00001ac6;
18 : 00001119;
19 : 000032e1;
20 : 00002b61;
21 : 000017b3;
22 : ffffeacf;
23 : ffff9c7c;
24 : ffffa6c9;
25 : ffff7b22;
26 : 00000113;
27 : 000003d1;
28 : 0000043e;
29 : 00002f0b;
30 : 00001689;
31 : 000037c1;
32 : 000015b5;
33 : 0000165a;
34 : fffffe31;
35 : fffff15b;
36 : ffffeee3;
37 : ffffdbd7;
38 : ffff8ec8;
39 : 000023bc;
40 : 00002456;
41 : 00001263;
42 : 0000074e;
43 : 000015b7;
44 : 00002f3c;
45 : 000037d5;
46 : 00001080;
47 : 000002c7;
48 : ffffdcbc;
49 : ffffc036;
50 : ffffc480;
51 : 00001c22;
52 : 00000c2b;
53 : ffffeb3c;
54 : 0000145c;
55 : 0000103c;
56 : 00001ebc;
57 : 0000447b;
58 : 00003662;
59 : 00000dd7;
60 : 00001002;
61 : fffff292;
62 : ffffd867;
63 : ffffe21a;
64 : ffff7680;
65 : 00001615;
66 : 00000823;
67 : 00000bfb;
68 : 000015a9;
69 : 00000054;
70 : 00001832;
71 : 00001e79;
72 : 00000e7a;
73 : 00001d67;
74 : 000016c0;
75 : 00001abe;
76 : 00002ea8;
77 : ffff4fa8;
78 : ffffb118;
79 : ffffe189;
80 : fffff712;
81 : ffffeeae;
82 : fffff375;
83 : 00000da4;
84 : 00001e7e;
85 : 00001cc6;
86 : 00002500;
87 : 00002b53;
88 : 00000882;
89 : ffffdf9f;
90 : ffff5bf9;
91 : fffff6e4;
92 : ffffc0fe;
93 : ffffdeb4;
94 : ffffe86a;
95 : 00000b8c;
96 : fffffd1c;
97 : 00000274;
98 : 00002e20;
99 : 00000d89;
100 : ffffe76b;
101 : ffffe33c;
102 : ffffadee;
103 : 000000bc;
104 : 000006e9;
105 : ffffef89;
106 : ffffeebd;
107 : fffff157;
108 : 00000228;
109 : 0000097d;
110 : 000024ac;
111 : 00000dfb;
112 : 00000098;
113 : fffff7e4;
114 : ffffcd8f;
115 : ffffea08;
116 : ffffd305;
117 : fffff049;
118 : 000005e8;
119 : fffff795;
120 : ffffdc11;
121 : ffffecfb;
122 : fffff723;
123 : fffff7da;
124 : ffffffcb;
125 : ffffffb5;
126 : ffffeaf2;
127 : ffffe175;
128 : ffffd6e6;
129 : ffffc46c;
130 : ffffdc2c;
131 : ffffec11;
132 : 00000649;
133 : 000002a0;
134 : fffff4e0;
135 : fffff2c4;
136 : 00000171;
137 : 00001062;
138 : fffff8bd;
139 : fffff7fd;
140 : 000001ad;
141 : ffffcc51;
142 : 000007d5;
143 : fffffa4d;
144 : fffff464;
145 : ffffefc5;
146 : ffffec6b;
147 : 00000a23;
148 : 000012c2;
149 : 00000bda;
150 : 0000130f;
151 : fffffa62;
152 : fffffad6;
153 : 000003b4;
154 : 00000c62;
155 : ffffee83;
156 : 000022c5;
157 : 00001a2e;
158 : 000024d0;
159 : 00002065;
160 : 000010f1;
161 : 000014ed;
162 : 00001cb9;
163 : 0000141a;
164 : 000017c4;
165 : 0000072f;
166 : 00002c9a;
167 : 000012d4;
168 : ffffb4d6;
169 : 00000524;
170 : fffff425;
171 : 00000473;
172 : 00004658;
173 : 000022b0;
174 : 00001073;
175 : ffffe17f;
176 : 000008c3;
177 : 00000286;
178 : 000014fa;
179 : 00003789;
180 : ffff972c;
181 : fffff3bc;
182 : fffffc45;
183 : 00002f2d;
184 : fffff6a4;
185 : 00000ac1;
186 : ffffdeb3;
187 : 000008a0;
188 : 0000118d;
189 : 00001344;
190 : 00000649;
191 : 000012ee;
192 : 000009d3;
193 : 0000168b;
194 : ffffd468;
195 : 00002235;
196 : 000025b3;
197 : ffffe920;
198 : 000012ae;
199 : ffffebf8;
200 : 00001a39;
201 : 00001a35;
202 : 00000d48;
203 : 00000234;
204 : fffff472;
205 : ffffffaa;
206 : fffffb89;
207 : 00001ca8;
208 : 00002488;
209 : 00003757;
210 : fffff516;
211 : ffffbaf0;
212 : ffffab0d;
213 : ffffb6fd;
214 : ffffd340;
215 : fffff3a7;
216 : fffff6a3;
217 : 00000827;
218 : 00000943;
219 : 00000f7c;
220 : 0000110b;
221 : fffffd1e;
222 : 0000341d;
223 : ffffaf59;
224 : ffffbcf2;
225 : ffff9f3c;
226 : ffff8ee2;
227 : ffffb0ea;
228 : ffffdb28;
229 : fffffc5a;
230 : 0000096e;
231 : 00001b9d;
232 : 0000138a;
233 : ffff9736;
234 : fffff955;
235 : 00001e09;
236 : ffffca15;
237 : ffffbd9b;
238 : ffff99bf;
239 : ffff7cb5;
240 : ffffadd3;
241 : ffffdf92;
242 : fffff586;
243 : 00000d4c;
244 : 000000ce;
245 : 00000df7;
246 : ffff8853;
247 : 0000338e;
248 : 00000a39;
249 : 00001f5f;
250 : 00001c86;
251 : fffff533;
252 : ffffae7a;
253 : ffffda09;
254 : ffffe6ba;
255 : fffffd7c;
256 : 0000041a;
257 : ffffefc6;
258 : ffffd2eb;
259 : 00000436;
260 : 00002a80;
261 : 00001b41;
262 : 00001d75;
263 : 00004a6b;
264 : 0000037c;
265 : ffffd545;
266 : ffffe93b;
267 : fffffbe3;
268 : fffff897;
269 : fffff6dc;
270 : ffffed45;
271 : fffffd2e;
272 : 00001b48;
273 : ffffd2f9;
274 : 00001d6b;
275 : 00002317;
276 : fffff5b2;
277 : ffffd4df;
278 : ffffda6c;
279 : ffffe71b;
280 : fffff51f;
281 : fffffa50;
282 : ffffff9e;
283 : 000003ec;
284 : 00000b42;
285 : 000010a0;
286 : 00004f88;
287 : fffffbe6;
288 : ffffef61;
289 : ffffe97c;
290 : ffffe7bd;
291 : ffffd650;
292 : ffffbd41;
293 : ffffeb22;
294 : 00001814;
295 : 000008a1;
296 : fffffe8d;
297 : 00001c83;
298 : fffffb4f;
299 : 00002ab5;
300 : 000046e1;
301 : ffffec00;
302 : fffff31d;
303 : ffffe085;
304 : ffffb2c0;
305 : ffffd5dd;
306 : fffff805;
307 : fffff1f6;
308 : fffffa07;
309 : 0000013e;
310 : 00000708;
311 : 000009fa;
312 : 0000033d;
313 : fffff320;
314 : ffffdeee;
315 : ffffbcb3;
316 : ffffb40a;
317 : ffffb30d;
318 : ffffe06b;
319 : ffffe7b6;
320 : ffffed0c;
321 : 00000477;
322 : ffffeb99;
323 : 00001d37;
324 : ffffed5f;
325 : 0000089a;
326 : ffffdc33;
327 : ffffc7f2;
328 : ffffa949;
329 : ffffd002;
330 : 00002445;
331 : 00004398;
332 : ffffe7dc;
333 : 00001ab8;
334 : 000003e2;
335 : 00001934;
336 : 00001149;
337 : ffffe1eb;
338 : fffff5fe;
339 : fffffccd;
340 : 00000dbb;
341 : 000018ba;
342 : 0000124f;
343 : ffffce32;
344 : ffffe132;
345 : ffffe51b;
346 : ffffdba6;
347 : ffffc1c5;
348 : ffffe29f;
349 : ffffea92;
350 : fffff898;
351 : fffffa24;
352 : 000001a1;
353 : 00001c04;
354 : 00000a24;
355 : fffff3d5;
356 : ffffe186;
357 : ffffefdd;
358 : ffffcb9e;
359 : ffffc28f;
360 : ffff8f6b;
361 : ffff8a6c;
362 : ffffe240;
363 : ffffea80;
364 : 00001a75;
365 : fffffc1a;
366 : 00000025;
367 : 0000135f;
368 : 000005a3;
369 : fffff72f;
370 : 00000cd1;
371 : ffffffbb;
372 : fffff84d;
373 : fffff36b;
374 : fffffa20;
375 : ffffe881;
376 : fffff34c;
377 : fffffa4e;
378 : 00001255;
379 : 00001013;
380 : 00000189;
381 : ffffe5a4;
382 : fffff5b8;
383 : 000003a1;
384 : 00002dec;
385 : 00002dc1;
386 : 000017b3;
387 : 00002da8;
388 : ffffb3d3;
389 : ffffe85c;
390 : 000014a6;
391 : 00000483;
392 : fffff273;
393 : ffffeba3;
394 : ffffe2cd;
395 : ffffedd5;
396 : fffffc6f;
397 : fffffb7a;
398 : ffffe0d9;
399 : ffffd0e3;
400 : ffffc241;
401 : ffffbad2;
402 : ffffe02a;
403 : fffffe63;
404 : ffffe7c8;
405 : ffffd23c;
406 : fffff6da;
407 : 00000f68;
408 : fffffd74;
409 : ffffe376;
410 : ffffbde2;
411 : ffffa94a;
412 : ffffaf67;
413 : ffff5fbe;
414 : ffffddd1;
415 : ffffdecd;
416 : ffffc628;
417 : ffffb6f1;
418 : ffffd058;
419 : 0000046d;
420 : 000015e5;
421 : 000026fe;
422 : fffff944;
423 : ffffcd7f;
424 : ffffd613;
425 : fffff23f;
426 : ffffd7e2;
427 : ffffe3cc;
428 : ffffec6b;
429 : 0000042a;
430 : ffffc570;
431 : ffffcc4d;
432 : ffffef66;
433 : 00000e0a;
434 : 00000dd1;
435 : fffff4d5;
436 : ffffe61d;
437 : 00000eeb;
438 : ffffe6de;
439 : 0000172b;
440 : 00001154;
441 : ffffef31;
442 : 00000cbf;
443 : fffff168;
444 : ffffdc7f;
445 : ffffd290;
446 : ffffddf4;
447 : 000008cb;
448 : ffffee69;
449 : 00000ffb;
450 : 000024ee;
451 : 00001a99;
452 : 0000192b;
453 : ffffd966;
454 : ffffe881;
455 : 00000233;
456 : fffff280;
457 : fffff86c;
458 : fffff3fd;
459 : ffffd0ee;
460 : ffffebae;
461 : 00000935;
462 : 00001c6c;
463 : 00002c6b;
464 : 00001b9f;
465 : 000007ca;
466 : ffffdc96;
467 : ffffdff7;
468 : fffff527;
469 : ffffec47;
470 : 00000498;
471 : fffffa2d;
472 : fffff42d;
473 : ffffd0f1;
474 : fffff5cb;
475 : 00000679;
476 : fffff62a;
477 : ffffca51;
478 : ffffa890;
479 : ffffe09e;
480 : ffffef3d;
481 : 00001163;
482 : fffffb8b;
483 : fffffd14;
484 : fffff78f;
485 : 0000017e;
486 : fffff4f5;
487 : ffffe360;
488 : ffffe89d;
489 : fffff0d8;
490 : fffff82c;
491 : ffffe088;
492 : ffffe829;
493 : ffffeaf3;
494 : ffffe1b9;
495 : 0000219b;
496 : 00003389;
497 : 00001fcf;
498 : 000009d4;
499 : 0000154e;
500 : ffffdd03;
501 : fffff948;
502 : ffffe784;
503 : ffffe2b0;
504 : ffffda28;
505 : fffff30e;
506 : fffff09c;
507 : fffffe18;
508 : fffff5db;
509 : 0000064c;
510 : 00001a21;
511 : 0000042f;
512 : fffff2bb;
513 : fffff8aa;
514 : fffffad1;
515 : fffffcfd;
516 : 00000b40;
517 : ffffefe6;
518 : ffffea87;
519 : fffff1f7;
520 : fffff0c7;
521 : fffff4eb;
522 : fffffddd;
523 : fffff935;
524 : fffffa89;
525 : 00000a01;
526 : 0000101b;
527 : 00000ebe;
528 : 00000cff;
529 : 00000ab3;
530 : ffffe746;
531 : 0000014c;
532 : ffffedc7;
533 : 000000c0;
534 : 00001e92;
535 : 0000136a;
536 : 00000f97;
537 : 00001574;
538 : 000010fd;
539 : 00000681;
540 : 0000045e;
541 : fffff0ec;
542 : ffffe898;
543 : ffffdad4;
544 : ffffec7a;
545 : fffff564;
546 : 000005a7;
547 : 00002e7f;
548 : 00001dc8;
549 : 000028a5;
550 : 000018c0;
551 : 00002d85;
552 : 00002f09;
553 : 0000073f;
554 : ffffe9eb;
555 : ffffd317;
556 : ffffd5b8;
557 : ffffd415;
558 : ffffdc41;
559 : 0000077b;
560 : 00001863;
561 : 00001637;
562 : 00002019;
563 : 000023ea;
564 : 00002a2e;
565 : 00001e16;
566 : 00001500;
567 : fffffe40;
568 : ffffbe9b;
569 : ffff8183;
570 : ffffbdc7;
571 : ffffcfa3;
572 : fffff43d;
573 : 000014d7;
574 : 00001fd4;
575 : 0000306e;
576 : 00000d76;
577 : 00001334;
578 : 00001e85;
579 : 00002a9c;
580 : 00001ebc;
581 : fffff640;
582 : ffffc3b7;
583 : ffffd5ad;
584 : ffffda19;
585 : fffffc1b;
586 : 000016e2;
587 : 000039d2;
588 : 00000e2d;
589 : ffffe708;
590 : 00000d84;
591 : 00001be1;
592 : 00002773;
593 : 000022c5;
594 : 00001e23;
595 : 000002b3;
596 : ffffef55;
597 : ffffef45;
598 : 00000e63;
599 : 000006b3;
600 : fffff918;
601 : 00000481;
602 : 0000030b;
603 : 00001265;
604 : 00001b3b;
605 : 00000d83;
606 : 0000343d;
607 : 00000ac8;
608 : 000005fd;
609 : 00000026;
610 : ffffec3b;
611 : fffff113;
612 : 0000176e;
613 : 00003a8e;
614 : 000030d8;
615 : 00002acc;
616 : 00005c59;
617 : 0000493c;
618 : 000032e8;
619 : 000021cd;
620 : fffff368;
621 : ffffeb50;
622 : ffffc394;
623 : ffffd8d2;
624 : ffffe645;
625 : 00001249;
626 : 000037d0;
627 : 0000299e;
628 : 0000349e;
629 : 00003d2b;
630 : 00002a66;
631 : 00001c4b;
632 : 000001ac;
633 : ffffea2d;
634 : ffffc835;
635 : ffffe152;
636 : ffffcce7;
637 : 00000f6a;
638 : 00002dbf;
639 : 00003d56;
640 : 00003abf;
641 : 00002fbc;
642 : 000027ac;
643 : 00001b31;
644 : 000020a0;
645 : fffff35f;
646 : ffffcf7f;
647 : ffff7dc9;
648 : ffffc739;
649 : ffffe41c;
650 : ffffeb2f;
651 : 00000301;
652 : 00003ddc;
653 : 00006155;
654 : 00004fc2;
655 : 00003935;
656 : 000017bc;
657 : 00002885;
658 : ffffdaef;
659 : ffffdb8a;
660 : ffffbc70;
661 : ffffdd59;
662 : fffffcb5;
663 : fffff3fa;
664 : ffffe8a8;
665 : fffff00d;
666 : 0000074f;
667 : 00000d53;
668 : 00000c90;
669 : ffffe9cc;
670 : 00000c32;
671 : ffffea09;
672 : ffffe40d;
673 : ffffe831;
674 : fffff159;
675 : ffffed78;
END;
