WIDTH=32;
DEPTH=1024;
ADDRESS_RADIX=DEC;
DATA_RADIX=HEX;
CONTENT BEGIN
0 : 000007b2;
1 : 00000238;
2 : ffffebe3;
3 : fffff740;
4 : ffffebaf;
5 : ffffe328;
6 : ffffe628;
7 : ffffea8a;
8 : ffffe264;
9 : ffffe878;
10 : fffff2af;
11 : ffffee83;
12 : fffff53d;
13 : ffffe490;
14 : ffffc94d;
15 : ffffb869;
16 : ffffc2d1;
17 : ffffa6f6;
18 : ffffb872;
19 : ffffba3d;
20 : ffffa391;
21 : ffffc055;
22 : 0000032c;
23 : ffffca47;
24 : ffffd00e;
25 : fffff4b4;
26 : ffffe786;
27 : 000017d7;
28 : 00002415;
29 : 00003417;
30 : 0000270d;
31 : 000018be;
32 : 00001dc0;
33 : 00000cf4;
34 : 00000ddc;
35 : ffffedbd;
36 : ffff4eda;
37 : ffffbb3c;
38 : ffff9afc;
39 : 000003e6;
40 : fffff6b4;
41 : fffffe56;
42 : 0000110d;
43 : 0000093d;
44 : 0000021b;
45 : ffffffef;
46 : 000008d9;
47 : ffffff30;
48 : fffffc49;
49 : ffffd698;
50 : ffffefba;
51 : ffffb848;
52 : fffffc33;
53 : 00001b75;
54 : fffff48f;
55 : 0000002f;
56 : 00000814;
57 : fffffa5b;
58 : 00000a28;
59 : 00001a8a;
60 : 00003376;
61 : fffffc24;
62 : ffffe8a7;
63 : ffffdbfb;
64 : fffff3c0;
65 : fffff688;
66 : 00000f83;
67 : fffffd21;
68 : fffffaf3;
69 : 0000013f;
70 : fffff4bb;
71 : fffffa35;
72 : fffffda2;
73 : 00001f29;
74 : 00002246;
75 : 00001454;
76 : 00000217;
77 : ffffd148;
78 : 00003e1c;
79 : 00002f26;
80 : fffffb06;
81 : fffffd55;
82 : 00001c61;
83 : fffff90a;
84 : ffffc3a3;
85 : ffffe9ee;
86 : 0000209b;
87 : 000018b0;
88 : fffffba6;
89 : ffffdb4b;
90 : 00003101;
91 : 000035ef;
92 : 00001d60;
93 : ffffed05;
94 : fffff099;
95 : 00000a25;
96 : ffffea26;
97 : ffffaa80;
98 : ffffcd10;
99 : 000014f4;
100 : 0000356c;
101 : fffff21f;
102 : ffffd204;
103 : ffff9746;
104 : ffffea73;
105 : ffffeec0;
106 : fffff6be;
107 : fffff403;
108 : ffffef4c;
109 : ffffdfda;
110 : ffffefe2;
111 : ffffe537;
112 : 00001140;
113 : 00001c26;
114 : 00000a67;
115 : 000003e0;
116 : ffffe79e;
117 : fffff1d6;
118 : 00001ae5;
119 : ffffc78c;
120 : ffffbfa8;
121 : ffffde4e;
122 : ffffdee9;
123 : ffffe816;
124 : ffffe18c;
125 : ffffec1b;
126 : ffffed9d;
127 : fffffd83;
128 : ffffd001;
129 : fffffdee;
130 : ffff9c47;
131 : ffffd645;
132 : ffffdabe;
133 : ffffca6d;
134 : ffffcbec;
135 : ffffc917;
136 : ffffd132;
137 : ffffd841;
138 : ffffbffd;
139 : ffffd634;
140 : ffffdc38;
141 : ffffc2d8;
142 : 000016b6;
143 : ffffb1e8;
144 : fffff9a3;
145 : 000006b4;
146 : ffffff27;
147 : ffffe7e4;
148 : ffffbf73;
149 : ffffdc27;
150 : ffffd3e0;
151 : ffffd1d1;
152 : ffffc40b;
153 : ffffcf0d;
154 : ffff9638;
155 : ffffe6f9;
156 : 00003bc7;
157 : 00002515;
158 : 000011a7;
159 : 00000be1;
160 : fffffd6f;
161 : ffffec6f;
162 : fffffccf;
163 : ffffdea3;
164 : ffffd64b;
165 : ffffed70;
166 : ffffdb4a;
167 : ffffd0d2;
168 : ffffb435;
169 : fffffb79;
170 : 00000591;
171 : 0000021b;
172 : ffffca20;
173 : ffffb915;
174 : ffffad83;
175 : ffffb384;
176 : ffffb8cd;
177 : ffffc49e;
178 : ffffe538;
179 : fffffb29;
180 : ffffff4a;
181 : 00000466;
182 : 00000bc2;
183 : ffffbcb1;
184 : 00000376;
185 : 00001791;
186 : ffffe840;
187 : ffffe555;
188 : fffff400;
189 : 0000091a;
190 : ffffe95d;
191 : ffffd831;
192 : ffffc3c7;
193 : ffffa9a9;
194 : ffffdb24;
195 : 00002c32;
196 : 000013ed;
197 : 00001c12;
198 : 000000ce;
199 : 0000366f;
200 : 00001ff2;
201 : 00001cd2;
202 : 00000550;
203 : 0000147a;
204 : fffffea1;
205 : fffffd61;
206 : ffffed0e;
207 : ffffc591;
208 : 000036fc;
209 : 00006e8b;
210 : 00003a8e;
211 : 00005136;
212 : 00005198;
213 : 000021ed;
214 : fffff6a2;
215 : fffffcc8;
216 : 00000526;
217 : fffff751;
218 : 000006dc;
219 : 00000b20;
220 : ffffece3;
221 : 00004358;
222 : fffff250;
223 : 00000504;
224 : 00001bbb;
225 : 0000016b;
226 : fffff89a;
227 : ffffd21f;
228 : ffffdb74;
229 : fffff9d7;
230 : 000003c5;
231 : 000006fb;
232 : 00000e80;
233 : ffffcfa9;
234 : 000037c6;
235 : ffffdd15;
236 : ffffcf33;
237 : ffffbaa7;
238 : ffffb005;
239 : ffffd1ac;
240 : ffffe4f0;
241 : 00000f3a;
242 : 000001c3;
243 : fffffd1b;
244 : 00002b13;
245 : 00000b42;
246 : ffffcd51;
247 : 0000058a;
248 : ffffb99e;
249 : ffffa17c;
250 : ffffc720;
251 : fffff9cc;
252 : 00000a84;
253 : ffffbfb5;
254 : fffff3ec;
255 : 00000605;
256 : 000021e8;
257 : 00000e87;
258 : 00000683;
259 : ffffc04d;
260 : fffffd5e;
261 : ffffb354;
262 : ffffcdf2;
263 : ffffe864;
264 : fffff77c;
265 : ffffc45d;
266 : ffffc046;
267 : ffffd6fd;
268 : fffff67f;
269 : 000025b9;
270 : 00000ba7;
271 : 00000227;
272 : ffffdb2a;
273 : 000052b4;
274 : 00000dea;
275 : fffff701;
276 : 00005775;
277 : 00001b05;
278 : ffffc1ec;
279 : ffffea6b;
280 : fffff18e;
281 : fffff458;
282 : ffffeb1c;
283 : 00000076;
284 : fffffe69;
285 : ffffe918;
286 : 00002cd9;
287 : ffffda4c;
288 : fffffd6d;
289 : fffffa9f;
290 : ffffe06a;
291 : 00001032;
292 : 00000d0d;
293 : ffffee16;
294 : ffffe157;
295 : ffffe993;
296 : ffffee72;
297 : ffffc532;
298 : ffffee3a;
299 : ffffff0e;
300 : ffffe619;
301 : ffffb9c3;
302 : ffffcc2a;
303 : fffff1d4;
304 : 000023d1;
305 : 000029fd;
306 : fffff555;
307 : 000004ba;
308 : fffffab8;
309 : fffff1c5;
310 : ffffd5b3;
311 : 00001dd5;
312 : 00000b4a;
313 : ffffe334;
314 : ffffeaa5;
315 : 00003296;
316 : 000015ff;
317 : 0000283d;
318 : 000015d7;
319 : 0000186a;
320 : 00001c57;
321 : fffffe75;
322 : 000000da;
323 : ffffe5fa;
324 : ffffe707;
325 : fffffcca;
326 : 000027e6;
327 : 00004789;
328 : 00004b12;
329 : 00005c9b;
330 : 00001dc5;
331 : 0000130f;
332 : 00002261;
333 : 000013e0;
334 : 00001143;
335 : 000021f1;
336 : 00001fea;
337 : ffffcf5d;
338 : 0000181b;
339 : 0000188c;
340 : 00001796;
341 : 000004dc;
342 : fffff574;
343 : 00000967;
344 : 00000639;
345 : 000006d0;
346 : 00000e5d;
347 : 00002322;
348 : 0000153a;
349 : 00001ddc;
350 : 000023f5;
351 : 00001b4b;
352 : 00000d7b;
353 : ffffefcf;
354 : ffffea8b;
355 : ffffc1bd;
356 : ffffed06;
357 : ffffabdc;
358 : ffffda7b;
359 : ffffc5cc;
360 : 000009a7;
361 : 00000464;
362 : 0000204f;
363 : 000027e8;
364 : 0000109f;
365 : fffff524;
366 : 00001fb2;
367 : 00001433;
368 : 00000dd3;
369 : fffffe74;
370 : ffffabbe;
371 : ffffd2c1;
372 : fffff60e;
373 : fffff639;
374 : 00000f21;
375 : 00000781;
376 : 00001879;
377 : 000002c1;
378 : ffffefe8;
379 : 000009cc;
380 : 000000f3;
381 : 00000403;
382 : ffffde10;
383 : ffffce12;
384 : ffffd417;
385 : 0000099c;
386 : 000004b8;
387 : 00003cfb;
388 : 000012f8;
389 : 00001f86;
390 : 00000318;
391 : fffff867;
392 : fffff092;
393 : fffff1b5;
394 : ffffd9b2;
395 : ffffdb26;
396 : 000006c3;
397 : 000016fb;
398 : 00000a3b;
399 : fffff93d;
400 : ffffe2e8;
401 : ffffc540;
402 : 000001c1;
403 : 00001ccb;
404 : fffff8db;
405 : ffffd115;
406 : ffffe546;
407 : ffffe088;
408 : fffff0fa;
409 : 00004225;
410 : 00004071;
411 : 00000a0b;
412 : ffffef62;
413 : ffffe349;
414 : ffffa322;
415 : fffffc20;
416 : 00003812;
417 : 00001c14;
418 : ffffe9a2;
419 : ffffe8cf;
420 : 00000c72;
421 : fffff65f;
422 : 00002d9e;
423 : 00003557;
424 : 00000f99;
425 : 000004bf;
426 : fffff945;
427 : fffff840;
428 : 00001a7c;
429 : 0000170c;
430 : 000017d3;
431 : 000002e8;
432 : fffffc2a;
433 : fffffd3c;
434 : ffffe4b5;
435 : fffffcce;
436 : 00002768;
437 : 00000268;
438 : 0000251a;
439 : ffffef09;
440 : ffffea34;
441 : 00002324;
442 : ffffece0;
443 : 0000100e;
444 : ffffe903;
445 : 00001036;
446 : ffffe8f7;
447 : fffff6e3;
448 : 00000b53;
449 : fffffede;
450 : fffff1be;
451 : ffffdb52;
452 : ffffb2ed;
453 : ffffead5;
454 : fffff44d;
455 : fffff94b;
456 : 000013ef;
457 : fffff5ef;
458 : ffffe33d;
459 : ffffe8c9;
460 : 0000063f;
461 : 0000062e;
462 : 00000b35;
463 : 0000014b;
464 : ffffcde3;
465 : ffffc01c;
466 : 000013b2;
467 : 00000f52;
468 : ffffd6c9;
469 : 00000bbe;
470 : 0000141b;
471 : fffff84c;
472 : ffffffd4;
473 : 000009b8;
474 : 00001631;
475 : 00000b11;
476 : 00001e3e;
477 : ffffe01f;
478 : fffff5cf;
479 : 00001914;
480 : 00000f8d;
481 : 0000064b;
482 : 000005c4;
483 : 00000be6;
484 : fffff7ec;
485 : 0000119e;
486 : 00000a2e;
487 : 00002a2a;
488 : 000031d7;
489 : 000017af;
490 : fffffabf;
491 : 00000b0e;
492 : ffffff52;
493 : 00002410;
494 : 000029b2;
495 : 000005e1;
496 : 0000185e;
497 : 00002b28;
498 : 00000cfc;
499 : 00001bfa;
500 : 00001482;
501 : 0000236a;
502 : 000015f5;
503 : fffff2f2;
504 : 00001d64;
505 : 000004ca;
506 : 00001cf0;
507 : 00002732;
508 : 000022cb;
509 : 000028ec;
510 : 000015ec;
511 : 00000dea;
512 : 00000c89;
513 : 000012ea;
514 : 000010b0;
515 : 00001923;
516 : 00001c65;
517 : 000020e3;
518 : 00002296;
519 : 00002a84;
520 : 00001f32;
521 : 00001a13;
522 : 000013f3;
523 : 00002566;
524 : ffffe479;
525 : fffff9a3;
526 : 00000874;
527 : 000018f3;
528 : ffffeac2;
529 : ffffe3e0;
530 : ffffeb93;
531 : 00001358;
532 : 00001c45;
533 : 00002662;
534 : fffff7c4;
535 : 00001eda;
536 : 00001504;
537 : 00002c38;
538 : 00001b85;
539 : 0000162d;
540 : 0000043b;
541 : 0000135f;
542 : 00000f5c;
543 : fffffa5e;
544 : 00000594;
545 : 000006a8;
546 : 00002633;
547 : 00002735;
548 : 00002876;
549 : 00002790;
550 : 0000180b;
551 : 0000125e;
552 : 00001a85;
553 : 00000801;
554 : 0000059c;
555 : 00000694;
556 : fffffebb;
557 : 0000107d;
558 : 00002696;
559 : 0000319e;
560 : 00001247;
561 : 00000f1e;
562 : 0000351e;
563 : 00003f92;
564 : 00000cfb;
565 : 00001b0f;
566 : 00000aa0;
567 : 00000cd9;
568 : ffffe999;
569 : fffffd41;
570 : 00001171;
571 : fffff80a;
572 : 00004b85;
573 : 00004268;
574 : 00000e67;
575 : 00004c10;
576 : 0000118a;
577 : ffffe424;
578 : ffffc7f0;
579 : ffffcf79;
580 : ffffd3c9;
581 : fffff1f9;
582 : fffff340;
583 : 00000396;
584 : 000034ae;
585 : 00002793;
586 : 0000099c;
587 : 0000066b;
588 : 00000149;
589 : 00001ab9;
590 : ffffdbe5;
591 : ffffb6b8;
592 : ffffc3b0;
593 : ffffe5e2;
594 : 00002bcd;
595 : 00000ff3;
596 : 00001bfa;
597 : 00000f51;
598 : 000027d9;
599 : fffff607;
600 : ffffeffb;
601 : 00001a77;
602 : 0000157c;
603 : ffffd4cc;
604 : ffffd67a;
605 : 00000ecd;
606 : 00000ca0;
607 : 00000f20;
608 : 00000644;
609 : ffffe9ea;
610 : fffff8d6;
611 : 00003040;
612 : fffffa16;
613 : fffff02f;
614 : fffffc99;
615 : fffff6b3;
616 : fffff07f;
617 : ffffe66b;
618 : ffffbbeb;
619 : 000037d6;
620 : 000036a5;
621 : fffff398;
622 : 0000090c;
623 : 00002509;
624 : 00001d92;
625 : 00000b19;
626 : ffffd8cd;
627 : ffffe40b;
628 : ffffde3d;
629 : ffffe4d9;
630 : ffffcc2b;
631 : ffffc10f;
632 : ffffcc41;
633 : 000007cb;
634 : 00000053;
635 : fffff7b5;
636 : 00002771;
637 : 0000160b;
638 : 00002bfe;
639 : 0000181c;
640 : fffff0f9;
641 : ffffdcb4;
642 : ffffc37b;
643 : ffffbc4d;
644 : ffffbe07;
645 : fffff844;
646 : ffffde52;
647 : fffff7ef;
648 : fffff5ab;
649 : 00002b03;
650 : 000023df;
651 : 00003251;
652 : fffff828;
653 : ffffdd62;
654 : ffffab3d;
655 : ffff7397;
656 : ffffaacd;
657 : ffff9e28;
658 : ffffb400;
659 : ffffe458;
660 : fffff785;
661 : 0000027c;
662 : 00002975;
663 : 000029dd;
664 : 000002be;
665 : ffffde8b;
666 : 00000b72;
667 : fffff385;
668 : 0000059c;
669 : 00001220;
670 : 000000c9;
671 : 00000f18;
672 : 00002605;
673 : 00002fc5;
674 : 00003e99;
675 : 00002775;
676 : 00000000;
677 : 00000000;
678 : 00000000;
679 : 00000000;
680 : 00000000;
681 : 00000000;
682 : 00000000;
683 : 00000000;
684 : 00000000;
685 : 00000000;
686 : 00000000;
687 : 00000000;
688 : 00000000;
689 : 00000000;
690 : 00000000;
691 : 00000000;
692 : 00000000;
693 : 00000000;
694 : 00000000;
695 : 00000000;
696 : 00000000;
697 : 00000000;
698 : 00000000;
699 : 00000000;
700 : 00000000;
701 : 00000000;
702 : 00000000;
703 : 00000000;
704 : 00000000;
705 : 00000000;
706 : 00000000;
707 : 00000000;
708 : 00000000;
709 : 00000000;
710 : 00000000;
711 : 00000000;
712 : 00000000;
713 : 00000000;
714 : 00000000;
715 : 00000000;
716 : 00000000;
717 : 00000000;
718 : 00000000;
719 : 00000000;
720 : 00000000;
721 : 00000000;
722 : 00000000;
723 : 00000000;
724 : 00000000;
725 : 00000000;
726 : 00000000;
727 : 00000000;
728 : 00000000;
729 : 00000000;
730 : 00000000;
731 : 00000000;
732 : 00000000;
733 : 00000000;
734 : 00000000;
735 : 00000000;
736 : 00000000;
737 : 00000000;
738 : 00000000;
739 : 00000000;
740 : 00000000;
741 : 00000000;
742 : 00000000;
743 : 00000000;
744 : 00000000;
745 : 00000000;
746 : 00000000;
747 : 00000000;
748 : 00000000;
749 : 00000000;
750 : 00000000;
751 : 00000000;
752 : 00000000;
753 : 00000000;
754 : 00000000;
755 : 00000000;
756 : 00000000;
757 : 00000000;
758 : 00000000;
759 : 00000000;
760 : 00000000;
761 : 00000000;
762 : 00000000;
763 : 00000000;
764 : 00000000;
765 : 00000000;
766 : 00000000;
767 : 00000000;
768 : 00000000;
769 : 00000000;
770 : 00000000;
771 : 00000000;
772 : 00000000;
773 : 00000000;
774 : 00000000;
775 : 00000000;
776 : 00000000;
777 : 00000000;
778 : 00000000;
779 : 00000000;
780 : 00000000;
781 : 00000000;
782 : 00000000;
783 : 00000000;
784 : 00000000;
785 : 00000000;
786 : 00000000;
787 : 00000000;
788 : 00000000;
789 : 00000000;
790 : 00000000;
791 : 00000000;
792 : 00000000;
793 : 00000000;
794 : 00000000;
795 : 00000000;
796 : 00000000;
797 : 00000000;
798 : 00000000;
799 : 00000000;
800 : 00000000;
801 : 00000000;
802 : 00000000;
803 : 00000000;
804 : 00000000;
805 : 00000000;
806 : 00000000;
807 : 00000000;
808 : 00000000;
809 : 00000000;
810 : 00000000;
811 : 00000000;
812 : 00000000;
813 : 00000000;
814 : 00000000;
815 : 00000000;
816 : 00000000;
817 : 00000000;
818 : 00000000;
819 : 00000000;
820 : 00000000;
821 : 00000000;
822 : 00000000;
823 : 00000000;
824 : 00000000;
825 : 00000000;
826 : 00000000;
827 : 00000000;
828 : 00000000;
829 : 00000000;
830 : 00000000;
831 : 00000000;
832 : 00000000;
833 : 00000000;
834 : 00000000;
835 : 00000000;
836 : 00000000;
837 : 00000000;
838 : 00000000;
839 : 00000000;
840 : 00000000;
841 : 00000000;
842 : 00000000;
843 : 00000000;
844 : 00000000;
845 : 00000000;
846 : 00000000;
847 : 00000000;
848 : 00000000;
849 : 00000000;
850 : 00000000;
851 : 00000000;
852 : 00000000;
853 : 00000000;
854 : 00000000;
855 : 00000000;
856 : 00000000;
857 : 00000000;
858 : 00000000;
859 : 00000000;
860 : 00000000;
861 : 00000000;
862 : 00000000;
863 : 00000000;
864 : 00000000;
865 : 00000000;
866 : 00000000;
867 : 00000000;
868 : 00000000;
869 : 00000000;
870 : 00000000;
871 : 00000000;
872 : 00000000;
873 : 00000000;
874 : 00000000;
875 : 00000000;
876 : 00000000;
877 : 00000000;
878 : 00000000;
879 : 00000000;
880 : 00000000;
881 : 00000000;
882 : 00000000;
883 : 00000000;
884 : 00000000;
885 : 00000000;
886 : 00000000;
887 : 00000000;
888 : 00000000;
889 : 00000000;
890 : 00000000;
891 : 00000000;
892 : 00000000;
893 : 00000000;
894 : 00000000;
895 : 00000000;
896 : 00000000;
897 : 00000000;
898 : 00000000;
899 : 00000000;
900 : 00000000;
901 : 00000000;
902 : 00000000;
903 : 00000000;
904 : 00000000;
905 : 00000000;
906 : 00000000;
907 : 00000000;
908 : 00000000;
909 : 00000000;
910 : 00000000;
911 : 00000000;
912 : 00000000;
913 : 00000000;
914 : 00000000;
915 : 00000000;
916 : 00000000;
917 : 00000000;
918 : 00000000;
919 : 00000000;
920 : 00000000;
921 : 00000000;
922 : 00000000;
923 : 00000000;
924 : 00000000;
925 : 00000000;
926 : 00000000;
927 : 00000000;
928 : 00000000;
929 : 00000000;
930 : 00000000;
931 : 00000000;
932 : 00000000;
933 : 00000000;
934 : 00000000;
935 : 00000000;
936 : 00000000;
937 : 00000000;
938 : 00000000;
939 : 00000000;
940 : 00000000;
941 : 00000000;
942 : 00000000;
943 : 00000000;
944 : 00000000;
945 : 00000000;
946 : 00000000;
947 : 00000000;
948 : 00000000;
949 : 00000000;
950 : 00000000;
951 : 00000000;
952 : 00000000;
953 : 00000000;
954 : 00000000;
955 : 00000000;
956 : 00000000;
957 : 00000000;
958 : 00000000;
959 : 00000000;
960 : 00000000;
961 : 00000000;
962 : 00000000;
963 : 00000000;
964 : 00000000;
965 : 00000000;
966 : 00000000;
967 : 00000000;
968 : 00000000;
969 : 00000000;
970 : 00000000;
971 : 00000000;
972 : 00000000;
973 : 00000000;
974 : 00000000;
975 : 00000000;
976 : 00000000;
977 : 00000000;
978 : 00000000;
979 : 00000000;
980 : 00000000;
981 : 00000000;
982 : 00000000;
983 : 00000000;
984 : 00000000;
985 : 00000000;
986 : 00000000;
987 : 00000000;
988 : 00000000;
989 : 00000000;
990 : 00000000;
991 : 00000000;
992 : 00000000;
993 : 00000000;
994 : 00000000;
995 : 00000000;
996 : 00000000;
997 : 00000000;
998 : 00000000;
999 : 00000000;
1000 : 00000000;
1001 : 00000000;
1002 : 00000000;
1003 : 00000000;
1004 : 00000000;
1005 : 00000000;
1006 : 00000000;
1007 : 00000000;
1008 : 00000000;
1009 : 00000000;
1010 : 00000000;
1011 : 00000000;
1012 : 00000000;
1013 : 00000000;
1014 : 00000000;
1015 : 00000000;
1016 : 00000000;
1017 : 00000000;
1018 : 00000000;
1019 : 00000000;
1020 : 00000000;
1021 : 00000000;
1022 : 00000000;
1023 : 00000000;
END;
